. 447566878
, 423617973
der 240469313
die 218045958
&quot; 177788666
und 166767214
in 139321897
@-@ 134513923
den 95907491
: 81489838
mit 70333343
von 68469072
zu 66836076
das 66375976
auf 60138366
im 59595284
ist 59591329
sich 57607960
für 57307487
- 53188395
dem 51722155
Die 51474670
nicht 51189372
es 50419001
ein 49732399
des 48588989
) 44710561
( 44706689
eine 43225314
auch 40554483
an 37966607
er 37620413
als 35464049
am 34447335
aus 32836899
dass 29991370
bei 29336305
Der 28965167
nach 28690116
sie 28127892
hat 27681257
um 26796822
werden 26586676
Das 24110541
einer 23443686
einem 23218466
wie 23087328
noch 22982960
sind 22938835
vor 22856820
war 22703829
einen 22579911
wird 21852343
zum 19815705
haben 19525959
über 19181994
aber 19080656
so 18319329
ver@@ 16883658
nur 16863574
/ 16665221
oder 16020721
mehr 15490977
er@@ 15291724
man 14715787
hatte 14684973
gegen 14477200
wurde 14172294
bis 14026720
In 13496546
be@@ 13457208
sein 13404576
ten 13244134
sei 12935118
zur 12828196
? 12820144
Sie 12417397
Es 11902743
Euro 11897087
sagte 11888297
ge@@ 11861054
an@@ 11699426
te 11620413
wir 11292657
durch 11062101
en@@ 11038962
k@@ 11014076
habe 10860755
kann 10751179
ich 10730875
wieder 10602820
unter 10584011
en 10263835
schon 10252455
ein@@ 10148574
vom 9689846
aus@@ 9627682
t@@ 9601003
ab@@ 9597032
Ver@@ 9315570
Prozent 9298522
Jahr 9215789
s@@ 9204347
zwei 9182388
Jahren 9169193
dann 9100770
sch@@ 9025865
können 8807735
beim 8729430
Uhr 8720152
Und 8691267
f@@ 8685190
un@@ 8596839
immer 8595026
wenn 8578395
gibt 8535400
K@@ 8453759
seine 8417556
ihre 8376194
soll 8247315
Im 8234708
Ein 8153949
An@@ 8135917
Wir 8128253
Er 8113965
1 8073587
z@@ 8069233
s 8032613
Auch 7914370
Sch@@ 7824530
B@@ 7805947
d@@ 7764356
waren 7666208
a 7660281
Ich 7623135
auf@@ 7607953
ung 7553027
ter 7454601
n@@ 7336273
Menschen 7302890
keine 7261361
g@@ 7171341
sagt 7161296
S@@ 7127489
b@@ 7115237
Ab@@ 7103548
seiner 7093560
m@@ 6967277
seit 6944614
was 6904879
Jahre 6904476
Nach 6899339
Mit 6892028
P@@ 6829118
t 6821057
ab 6762530
muss 6749708
e 6741020
eines 6695006
wurden 6690522
drei 6686134
i 6630083
will 6625242
geht 6624176
ent@@ 6587289
alle 6552830
gen 6546306
über@@ 6427784
A@@ 6368208
E@@ 6362503
nun 6329273
2 6297817
ersten 6295888
sehr 6295431
diese 6255665
worden 6227207
ungen 6227180
bereits 6224407
T@@ 6215978
da 6203768
Ein@@ 6192512
H@@ 6162129
L@@ 6161970
de 6152649
h@@ 6136875
Deutschland 6095301
st@@ 6073278
F@@ 6069297
M@@ 6068611
Vor@@ 6014598
gut 5977391
el@@ 5926338
Für 5916199
G@@ 5905431
vor@@ 5835618
dieser 5806650
ern 5790975
ins 5780500
Bei 5653758
D@@ 5633710
uns 5631428
Aus@@ 5617638
damit 5577610
W@@ 5566867
zwischen 5555443
diesem 5541528
viel 5471826
e@@ 5458162
ihr 5445083
neue 5383826
ch@@ 5381176
o 5375901
in@@ 5375211
l@@ 5371953
zu@@ 5297208
Zeit 5288801
sten 5282528
Ende 5267872
ungs@@ 5267014
seinen 5259144
Am 5249973
rund 5240404
Eine 5207804
R@@ 5205517
selbst 5205073
müssen 5188616
viele 5185606
Be@@ 5125942
Millionen 5117998
jetzt 5115807
hatten 5071496
chen 5069642
0 5039094
weiter 5027320
k 4975168
ihren 4973365
Er@@ 4970369
3 4960478
mann 4944607
seinem 4936892
Doch 4913588
So 4889145
machen 4865657
etwa 4862251
! 4817744
kommen 4815793
neuen 4795751
ihrer 4778734
l 4767533
doch 4762154
seien 4752054
Aber 4721312
sowie 4703085
r@@ 4698478
allem 4697044
anderen 4663075
ganz 4661900
ohne 4638549
ler 4636456
weil 4623658
hier 4604275
n 4590981
u@@ 4579607
ert 4513634
al@@ 4511829
gab 4506218
Z@@ 4502309
Berlin 4497669
um@@ 4462749
dpa 4462464
sondern 4448727
Polizei 4445877
ge 4423966
schen 4405973
m 4397652
etwas 4370789
steht 4370156
; 4365886
re@@ 4357416
dabei 4342454
Wie 4306359
US 4304579
lich 4291543
Stadt 4276628
unter@@ 4271612
wegen 4259903
vier 4213643
ner 4202724
neues 4201116
i@@ 4153167
N@@ 4148000
o@@ 4144737
wollen 4142056
werde 4133076
enden 4103307
ihn 4099547
vergangenen 4097598
kommt 4087351
z 4085620
p@@ 4068253
ger 4054406
erst 4025918
Auf@@ 4018220
Kinder 4017947
ar@@ 3997346
20 3977819
ihm 3965522
st 3955183
gehen 3947659
sollen 3945912
Auf 3920685
Als 3918151
g 3908054
einmal 3899643
heute 3891101
beiden 3870281
lassen 3855299
u 3852588
O@@ 3849905
4 3849802
ke 3837455
liche 3811591
ch 3800784
j@@ 3795986
di@@ 3780753
w@@ 3773594
le 3756481
sen 3753356
&apos; 3752583
andere 3751124
Wenn 3748628
Un@@ 3748158
eren 3740156
geben 3738711
Von 3730875
mal 3717532
Mann 3705414
ende 3670491
alles 3666256
ob 3655173
der@@ 3651210
000 3624371
sehen 3592120
Platz 3591068
SPD 3586071
ter@@ 3575021
kein 3572466
de@@ 3565955
Ge@@ 3560478
EU 3549069
St@@ 3543011
Welt 3542469
C@@ 3542387
stehen 3535358
lichen 3520397
ste 3513171
deutschen 3500745
V@@ 3494100
sche 3489282
dort 3486452
6 3480472
könnte 3461307
kam 3459152
Über@@ 3448621
v@@ 3448193
a@@ 3438367
ck@@ 3422826
end 3415853
dafür 3412218
deutschland.de 3357037
ens 3355687
konnte 3349411
ja 3320752
sp@@ 3304537
on@@ 3293789
tes 3286975
gen@@ 3270822
b 3258720
ger@@ 3258659
30 3256175
15 3254567
fünf 3253978
stand 3252351
wo 3222763
se 3211616
le@@ 3211134
sollte 3201958
gel@@ 3198801
ers 3190551
mich 3189856
nichts 3189723
Bau@@ 3184067
li@@ 3175136
el 3171848
ken 3170523
dazu 3169636
I@@ 3167650
wäre 3159302
allerdings 3159066
macht 3145687
ri@@ 3139080
jedoch 3119570
U@@ 3118363
Was 3115509
ihrem 3114954
... 3114767
or@@ 3111165
men 3110661
Sonntag 3092366
c@@ 3091187
ten@@ 3087291
ä@@ 3081357
letzten 3072919
großen 3072500
5 3070204
Frau 3070049
Leben 3066391
FC 3055841
erste 3052512
Da 3051499
at 3047957
3@@ 3045923
ber@@ 3032487
Spiel 3028274
d 3027440
Jährige 3022790
Land 3010169
Neu@@ 2991866
gewesen 2969055
f 2967495
ti@@ 2967056
Tag 2958883
große 2948055
USA 2944867
ne 2937399
ö@@ 2932871
würde 2918049
ange@@ 2916602
denen 2905746
ei@@ 2892021
weitere 2886316
den@@ 2886095
lange 2885211
Denn 2881900
J@@ 2881771
th@@ 2880930
fen 2877512
te@@ 2876130
berg 2854382
denn 2852966
Wer 2847520
ere 2843277
zehn 2840519
fast 2831823
ni@@ 2830304
be 2829308
zurück 2825164
stellen 2824952
Trainer 2824439
Re@@ 2817686
h 2815143
sogar 2815123
mir 2809153
se@@ 2807045
CDU 2803421
es@@ 2797896
r 2797215
Unter@@ 2796121
hätten 2792468
erten 2790601
50 2788467
dieses 2780453
ne@@ 2771515
ale 2770791
nen 2768012
davon 2766270
erte 2762199
Zu@@ 2761773
ra@@ 2756221
Ober@@ 2739379
ß@@ 2726672
Mal 2725837
si@@ 2718582
In@@ 2713647
Freitag 2702798
Samstag 2701257
also 2693068
zwar 2683746
Bundes@@ 2680120
ü@@ 2667924
laut 2667597
gemacht 2665932
bar 2665543
Bayern 2665214
Diese 2662416
.@@ 2662414
y@@ 2650081
wohl 2647922
on 2647239
as 2645012
allen 2642058
ging 2630725
Fall 2617730
fest 2616898
Unternehmen 2616771
at@@ 2614966
halten 2614195
sieht 2611501
ker 2603590
7 2598761
scher 2579871
4@@ 2571183
ts 2562319
Weg 2560718
später 2554382
mi@@ 2552353
ben 2547245
eln 2542130
Vor 2536905
Regierung 2533155
Team 2532009
Schul@@ 2531721
los 2531144
Geld 2528582
Woche 2525203
2013 2513353
liegt 2505553
Frauen 2505489
et@@ 2503443
her@@ 2487077
1. 2482957
Foto 2481872
Um@@ 2478904
sk@@ 2478789
tet 2468273
deutsche 2460425
Spiel@@ 2459533
ft 2455165
gar 2450782
geb@@ 2450410
Angaben 2444715
deutlich 2438722
diesen 2437576
zweiten 2433236
gesch@@ 2430093
würden 2429975
ster 2429727
Mar@@ 2427016
zen 2425340
Wochen 2423478
Dabei 2415111
ingen 2406737
cht 2402666
heißt 2401106
Al@@ 2398054
Man 2395914
Präsident 2395403
Arbeit 2390955
darauf 2383380
ot@@ 2381398
finden 2380994
eigenen 2379365
gt 2378746
ber 2374238
-@@ 2371799
dies 2369271
Frage 2365986
nach@@ 2365231
2014 2360539
einfach 2360032
straße 2356506
musste 2350442
Montag 2347831
inger 2346895
sen@@ 2345767
weit 2342083
ur@@ 2339933
10 2338647
18 2337548
Sp@@ 2336192
Deutschen 2334124
25 2331403
bin 2318673
sch 2316373
Arbeits@@ 2315783
gerade 2313695
gleich 2304683
x@@ 2302597
sechs 2298319
weniger 2298157
ene 2297968
hätte 2294643
Straße 2288247
vielen 2287823
ts@@ 2287343
tern 2286429
Mittwoch 2282354
zeit 2281834
al 2280097
me 2278704
erin 2275586
erklärte 2273558
München 2273016
wenig 2271147
ihnen 2269797
8 2268413
Fußball 2262023
14 2261487
spielen 2260551
tt@@ 2258641
wollte 2240701
während 2238830
Nach@@ 2236415
Den 2236124
Donnerstag 2232661
nehmen 2230679
zunächst 2228312
ausge@@ 2226064
durch@@ 2224391
Dienstag 2221054
ung@@ 2219261
5@@ 2211583
bleibt 2209058
2012 2209051
us 2190557
derzeit 2188428
16 2185536
au@@ 2174046
rei@@ 2173080
ag@@ 2170472
Thema 2165798
am@@ 2162631
ie 2161164
40 2159613
enen 2157003
bringen 2156603
Teil 2150596
Milliarden 2149995
bel@@ 2149457
Minuten 2148639
kon@@ 2138943
lässt 2134618
einige 2123448
arbeiten 2123134
Chef 2121853
Wei@@ 2118604
100 2117596
tung 2115974
land 2111517
jährige 2111278
anderem 2111031
19@@ 2110443
erklärt 2108819
em 2108812
it@@ 2108699
ff@@ 2107675
erung 2105295
gegeben 2103948
Dass 2102587
che 2100739
17 2097865
deren 2094855
licher 2094262
2015 2092572
möglich 2092187
haus 2090110
sagen 2089287
zusammen 2086086
statt 2084007
keinen 2080723
Sieg 2078438
ro@@ 2076035
weg 2073419
Zeitung 2070544
Groß@@ 2069251
eb@@ 2067990
p 2067979
ebenfalls 2067807
Seit 2066581
alten 2063800
bleiben 2063193
Sport@@ 2061581
isch 2059780
Saison 2057038
us@@ 2055424
einge@@ 2052897
ut@@ 2049627
gilt 2049052
len 2047751
nie 2042655
Europa 2040849
Bürgermeister 2037913
ser@@ 2027723
nächsten 2023735
wei@@ 2023682
Beispiel 2022455
is 2017205
leben 2016618
bisher 2015807
Mannschaft 2015123
WM 2014987
bach 2008670
zurück@@ 2006251
Se@@ 2003750
kaum 2001880
6@@ 2001590
könne 1996487
fer 1994281
tete 1982671
oft 1981148
cken 1977098
alen 1977035
tige 1974184
Mit@@ 1964206
ir@@ 1959020
dessen 1958581
ck 1955599
os@@ 1951583
gi@@ 1948189
Her@@ 1945112
Grund@@ 1944755
tun 1943908
setzen 1942250
lei@@ 1940263
schnell 1939684
la@@ 1939603
besser 1939375
Le@@ 1938301
tigen 1936554
sollten 1934406
Michael 1933869
13 1932793
Geschichte 1925307
SV 1924988
Meter 1923202
Thomas 1921254
ellen 1921214
aller 1921189
Mai 1917045
+ 1916269
mit@@ 1908940
gute 1908195
Zum 1904759
Haus 1902830
ie@@ 1900999
2011 1899176
könnten 1898599
Damit 1895843
stadt 1890709
Rück@@ 1889813
bekommen 1888952
An 1885347
September 1882841
fer@@ 1881639
Anfang 1879814
8@@ 1879088
zeigt 1878382
Familie 1875222
elt 1874210
kt 1873787
Tage 1873067
weiß 1871743
Zu 1871123
dern 1870016
gehört 1863078
lang 1858189
klar 1856851
ak@@ 1855654
Ziel 1854692
ing 1854535
besonders 1853850
führen 1845260
heim 1844663
9 1841663
Kon@@ 1840672
gekommen 1838898
innen 1837619
all@@ 1837370
sicher 1833114
spiel 1830307
ing@@ 1828363
7@@ 1826022
Stunden 1824188
Stadt@@ 1820228
cht@@ 1815016
De@@ 1810266
2016 1808524
acht 1803879
än@@ 1802652
enk@@ 1797070
zuletzt 1795872
Haupt@@ 1794865
mer@@ 1793738
wer@@ 1792039
gern 1790784
ern@@ 1785368
c 1780945
Welt@@ 1777102
Politik 1776676
tz@@ 1776511
Finanz@@ 1774285
Juni 1770267
Frei@@ 1767455
Eltern 1764778
Seite 1764299
sh@@ 1763372
Landes@@ 1760422
mer 1760012
recht 1759419
Einsatz 1755307
iert 1749710
bel 1749673
gebracht 1748950
jeder 1748102
is@@ 1747689
hei@@ 1747422
elle 1743726
Bi@@ 1743556
&amp; 1742561
knapp 1740532
Aus 1739782
hin 1737597
kommenden 1735817
19 1734214
schaft 1731984
ze 1731680
Spieler 1730905
ar 1730028
ziehen 1728570
hin@@ 1726464
März 1726216
hinter 1725332
os 1725059
fahren 1723924
Partei 1723216
bekannt 1722506
schwer 1722006
ka 1720542
abge@@ 1717157
natürlich 1716088
Bild 1707490
Wahl@@ 1705124
Ar@@ 1704274
deshalb 1700188
B 1698123
Dann 1697965
gel 1697760
Peter 1697388
neben 1696814
En@@ 1693324
ul@@ 1692229
Oktober 1685475
Nicht 1683900
cher 1683191
kl@@ 1682489
kurz 1681094
E 1680111
konnten 1679908
ol@@ 1676857
verb@@ 1676626
November 1676264
ap@@ 1675916
ru@@ 1675719
Gruppe 1671616
au 1671607
Kinder@@ 1666794
Rei@@ 1666674
21 1666103
findet 1665740
Punkte 1665131
insgesamt 1664846
alte 1663772
eher 1663260
Entscheidung 1663244
ko@@ 1662407
Zukunft 1657243
hält 1657097
Um 1655279
zuvor 1655066
Ger@@ 1654079
op@@ 1653101
genau 1652690
Di@@ 1652243
Ort 1651048
stellte 1649770
2010 1646137
Land@@ 1644159
Li@@ 1637344
Blick 1636355
Dollar 1630940
Ent@@ 1626504
müsse 1626109
damals 1624356
Juli 1621866
bei@@ 1620322
A 1616648
per 1616296
mehrere 1616270
führt 1615585
Jugend@@ 1613827
Erfolg 1611635
zi@@ 1609179
darf 1608450
Nur 1605894
gef@@ 1605376
Mitarbeiter 1605217
wissen 1604250
weiteren 1601680
stellt 1599099
2017 1597222
Bei@@ 1595327
pro 1593327
Januar 1587184
Schule 1583263
Merkel 1581477
Lebens@@ 1578718
zudem 1578097
eh@@ 1575197
ische 1574094
Fahr@@ 1572336
sieben 1571949
Bürger@@ 1571617
2@@ 1569880
2. 1569681
teilte 1567156
Berliner 1566430
hen 1564831
Hier 1561629
Gäste 1561017
Dezember 1560892
chten 1560774
Gemeinde 1558053
April 1557468
ließ 1555738
ran@@ 1555544
Jahres 1554959
Grund 1554056
em@@ 1550841
eigentlich 1549001
Kar@@ 1548990
darüber 1546034
Männer 1545621
gegenüber 1545081
Beim 1544841
ens@@ 1543992
erhalten 1542822
zusammen@@ 1541496
stark 1538680
zufolge 1537457
sel@@ 1537080
Tagen 1536826
voll 1534977
il@@ 1532091
ender 1531996
burg 1531744
liches 1529531
sa@@ 1529502
Fest@@ 1528172
dagegen 1528014
ischen 1527659
as@@ 1527169
kleinen 1523296
meisten 1523090
gestellt 1522901
August 1522137
fe 1520926
Verein 1517443
bau@@ 1514580
enz@@ 1514358
Zahl 1510891
Internet 1508348
aten 1507569
liegen 1507346
setzt 1506719
feld 1505024
Bo@@ 1499392
eben 1498837
teten 1498213
stelle 1497737
pf@@ 1497316
ums 1493809
Russland 1493197
11 1492938
S 1490047
tig 1488896
Ber@@ 1487063
verletzt 1487008
Hoch@@ 1486125
geworden 1486033
Richtung 1484537
machte 1482932
ad@@ 1479183
Ch@@ 1476705
wer 1475616
lung 1474184
är@@ 1473990
genommen 1469266
12 1468994
cker 1465425
Sozial@@ 1464209
.de 1460154
24 1458741
Auto 1458597
El@@ 1457335
TV 1457286
60 1456154
9@@ 1453428
unsere 1452774
Mitglieder 1449875
fall 1449034
schule 1448575
Bis 1448159
to 1444361
www.@@ 1444016
Dies 1443628
dung 1441528
wirklich 1441490
Deutsche 1439904
tliche 1439543
Dort 1437699
2018 1437245
Bar@@ 1436710
Stuttgart 1435384
zer 1431891
he 1431792
berichtet 1431329
or 1430652
tr@@ 1426944
seines 1426848
zeigen 1426010
Schüler 1425637
we@@ 1421845
22 1421799
Zudem 1420743
Fans 1420565
Nacht 1416720
gew@@ 1415475
ha@@ 1415239
her 1415117
Fach@@ 1414422
&#91; 1414328
erneut 1413747
spiel@@ 1412934
all 1412381
Grünen 1410702
ben@@ 1407159
kamen 1406831
man@@ 1406755
berger 1406007
Bad 1404693
Tri@@ 1399069
gang 1397440
wi@@ 1395119
Monaten 1395000
sti@@ 1393683
Martin 1392496
Jetzt 1392150
18@@ 1390548
Kosten 1390114
ell 1388079
and@@ 1387470
He@@ 1387294
fest@@ 1386859
Lu@@ 1385672
auer 1385348
of 1385089
bislang 1382266
Bürger 1379898
daran 1379814
Abend 1377697
sches 1377576
Region 1377282
erwartet 1375265
Hei@@ 1374560
ken@@ 1372876
Während 1372080
pp@@ 1371505
zahlen 1370685
Programm 1369873
spielt 1368993
Februar 1368896
anders 1367629
jeden 1366619
bi@@ 1364818
Lei@@ 1364751
ß 1363546
neu 1362986
&#93; 1361481
möchte 1361049
junge 1360978
chen@@ 1360038
Sprecher 1357934
Nun 1357290
alt 1354710
cke 1353995
Wahl 1353512
Viele 1353460
Art 1352244
gemeinsam 1352138
Hand@@ 1351755
lo@@ 1351745
Rolle 1351274
richtig 1350280
Sommer 1346948
ma@@ 1343597
wichtig 1342369
hr@@ 1341864
.000 1337939
ach@@ 1337122
CSU 1336499
besten 1336110
dürfen 1335449
gefunden 1332621
det 1332099
ell@@ 1331906
da@@ 1331169
y 1331007
Besucher 1329599
23 1328812
je 1328543
Minute 1327162
Höhe 1325809
Y@@ 1325124
Pro@@ 1324453
beide 1321898
x 1319981
Außerdem 1319318
Ha@@ 1318365
frei 1317988
Wasser@@ 1317738
berichtete 1314754
w 1314090
gebe 1313596
inzwischen 1313042
platz 1312646
Bundesliga 1312338
Probleme 1311503
Titel 1310217
Allerdings 1309496
paar 1309143
Ma@@ 1307534
kleine 1307087
Mitte 1303710
Beginn 1302178
3. 1301806
Mo@@ 1300256
Mutter 1300080
schließlich 1296577
amt 1295637
Führung 1293132
Wasser 1292495
geh@@ 1292329
werk 1290820
Leute 1289937
nimmt 1289516
Namen 1288779
Kilometer 1288199
del 1286815
hieß 1283458
allein 1282412
trotz 1280239
Problem 1280093
Informationen 1279699
Ro@@ 1279575
Ö@@ 1278152
end@@ 1274462
Gra@@ 1274460
lage 1273670
dorf 1273224
dr@@ 1271209
Ak@@ 1271170
Zwei 1269119
Frankfurt 1268880
Hilfe 1267315
Polizei@@ 1266195
legen 1265417
betonte 1265289
Union 1263240
erk@@ 1259906
Selbst@@ 1259790
v 1257631
Ex 1257389
ine 1256940
00 1255745
gest@@ 1254728
Über 1253304
hoch 1253093
Ergebnis 1252454
and 1252241
Wochenende 1252223
künftig 1252055
einigen 1251595
mt 1245565
zweite 1245387
guten 1245376
ationen 1243601
Wohn@@ 1243233
ta@@ 1242925
Musik@@ 1241868
ebenso 1241844
bo@@ 1240941
Mittel@@ 1238519
Müller 1238419
Kritik 1237712
fahr@@ 1236554
Unter 1235375
ation 1233556
Musik 1233515
heit 1233155
Wirtschafts@@ 1232520
Bereich 1231409
war@@ 1231132
im@@ 1230737
treffen 1229593
lagen 1228173
Christian 1227687
New 1226384
Projekt 1225490
Ru@@ 1225240
fi@@ 1224947
G 1224443
mindestens 1222787
ster@@ 1220934
Ex@@ 1220870
kom@@ 1220721
ör@@ 1220363
Au@@ 1220040
gruppe 1217717
eigene 1217402
1,@@ 1216192
Gel@@ 1216116
zeigte 1215962
chte 1215863
he@@ 1215595
mp@@ 1215175
Film 1213810
National@@ 1213539
vi@@ 1211203
Kreis@@ 1210975
aufge@@ 1210869
Entwicklung 1210506
0@@ 1209289
Fragen 1208981
mar@@ 1208211
Bahn 1207443
V 1207432
vielleicht 1207125
Mon@@ 1204759
ßen 1204739
jährigen 1203816
erstmals 1203647
dürfte 1203595
Chance 1202946
kosten 1201595
ach 1199929
setzte 1199504
Staats@@ 1199329
äu@@ 1197332
2,@@ 1196161
Ob 1195968
500 1195732
Steuer@@ 1195286
solche 1191895
rü@@ 1189512
tische 1188836
enz 1188194
tri@@ 1187618
men@@ 1186532
tra@@ 1185791
tag 1185759
Volks@@ 1184492
Lage 1184114
League 1182789
Kunden 1181742
stein 1181343
Medien 1179679
lu@@ 1179276
Bank 1177890
Einzel@@ 1177423
Ku@@ 1176983
tungs@@ 1175614
Dazu 1173918
ges@@ 1173540
Schon 1173494
versch@@ 1173360
Noch 1171972
Hand 1171130
läuft 1168554
qu@@ 1168431
anz@@ 1168340
age 1168214
groß 1168117
Tor@@ 1166411
Par@@ 1165319
Haus@@ 1165143
ss@@ 1164328
Ur@@ 1163745
ges 1163172
Opfer 1162938
Tor 1161391
Nord@@ 1160697
ub@@ 1158313
45 1158043
fallen 1157242
Erst 1156991
gte 1156980
0,@@ 1156294
Trump 1156081
weiter@@ 1155255
weise 1155174
Situation 1154286
zwei@@ 1154107
führung 1152267
jungen 1152265
hal@@ 1151569
ina 1151039
schaffen 1150379
sprechen 1148983
K 1148772
tischen 1148630
ur 1146906
Gesellschaft 1146185
Ste@@ 1144629
überhaupt 1143468
ler@@ 1143375
90 1142984
lan@@ 1142708
ckt 1141768
hoch@@ 1141609
ün@@ 1141356
Hamburg 1141235
Sicherheits@@ 1140232
weiterhin 1138594
politischen 1138354
2009 1138067
leicht 1136507
La@@ 1134718
om@@ 1133681
deten 1130767
welche 1128924
Kind 1128508
Laut 1128472
th 1128391
Klein@@ 1128254
rat 1128225
tiert 1128218
Kreis 1127550
ort 1127479
Hans 1127024
ser 1126837
Flüchtlinge 1123662
ut 1122157
fahrt 1122127
offenbar 1121997
ig@@ 1121385
unserer 1121116
schw@@ 1121115
80 1120958
tem 1119949
blieb 1119936
Start 1118689
ganze 1115129
Kom@@ 1114798
Alle 1114146
200 1113713
Gericht 1113561
FDP 1113181
Or@@ 1112648
ich@@ 1112494
Rad@@ 1110676
mussten 1110224
35 1109240
Vater 1109179
St. 1108983
sprach 1107892
ang@@ 1107637
ant 1107621
eller 1104925
zug 1104916
dienst 1104703
rä@@ 1104389
ah@@ 1102044
Unterstützung 1101980
Me@@ 1101978
kt@@ 1101206
Feuerwehr 1101088
Mehr 1101009
Kampf 1099944
äre 1099468
Frankreich 1099373
sel 1098728
Wer@@ 1098178
Österreich 1096227
langen 1094593
So@@ 1093827
ener 1093510
the 1093384
gs 1091131
verloren 1090448
Kindern 1089707
West@@ 1089600
Vorsitzende 1087022
to@@ 1086984
eng@@ 1086072
Köln 1085389
Personen 1084850
dritten 1084297
do@@ 1084103
Druck 1083734
laufen 1083348
Neben 1082528
zumindest 1082016
bt 1081837
Tra@@ 1081834
Wirtschaft 1081275
letzte 1080851
ik@@ 1080829
ier@@ 1080769
lag 1080644
tre@@ 1080018
Außen@@ 1079105
Andreas 1079015
unbe@@ 1077643
Monate 1077233
Th@@ 1077157
enten 1076991
mel@@ 1076700
Kopf 1076439
ed@@ 1075729
10@@ 1075650
meine 1074345
Hel@@ 1074005
70 1073648
Gesamt@@ 1072533
tlichen 1072280
fe@@ 1071604
Kl@@ 1070867
Markt 1070668
Politiker 1069765
D 1069158
zt 1068777
Staaten 1068731
Sein 1067302
ans 1065753
kten 1064997
spricht 1064184
gesagt 1062455
politische 1061778
Ihr 1060833
Preis 1060733
erzählt 1060631
China 1060007
daher 1059884
leiter 1059625
schaften 1059020
Buch 1058529
Sti@@ 1058272
jeweils 1057599
lingen 1057094
größten 1056657
gr@@ 1056604
einzu@@ 1055987
enn@@ 1054530
U 1053725
burger 1053594
per@@ 1050812
est@@ 1050307
frei@@ 1049849
gewinnen 1048873
Länder 1046475
direkt 1046421
Seine 1045361
auszu@@ 1043973
Har@@ 1043932
5. 1043825
anzu@@ 1043096
Lo@@ 1043026
dar@@ 1043009
fand 1040920
Partie 1040628
Pf@@ 1040554
Ländern 1038017
Gegen@@ 1037547
Partei@@ 1037457
Qu@@ 1036106
ft@@ 1035767
4. 1035767
stri@@ 1035309
ters 1035154
Bu@@ 1033720
verband 1033306
W 1030770
min@@ 1030061
markt 1029627
tions@@ 1029528
6. 1027509
Su@@ 1027252
gh@@ 1027180
fs 1026586
Man@@ 1025603
Mädchen 1025331
äl@@ 1024781
bringt 1022977
ktion 1022719
fordert 1022382
gung 1022188
27 1022147
voll@@ 1021488
Winter@@ 1021421
tz 1021372
Wolfgang 1020458
Vi@@ 1020157
Sicherheit 1019483
baren 1019161
bau 1019096
del@@ 1018882
neun 1017914
eu@@ 1017153
Best@@ 1017126
offen 1015931
gelegt 1015624
tragen 1015386
els 1015017
Dieser 1014244
28 1014180
SC 1013866
tisch 1012107
Süd@@ 1011914
tel@@ 1011194
Gen@@ 1010682
Po@@ 1010135
fin@@ 1008424
I 1008414
wagen 1008231
Liga 1007627
Fl@@ 1007140
zeit@@ 1006524
abzu@@ 1005472
mu@@ 1005404
ob@@ 1005220
gehören 1003721
denken 1001994
26 1000531
Ihre 999339
Sport 998820
gerne 998503
ungsp@@ 997888
zer@@ 997046
Verkehrs@@ 995439
Runde 995388
Wal@@ 994441
Kirche 994183
ei 992796
minister 992586
Wieder@@ 992014
Ne@@ 991094
ma 991081
gend 991021
gesehen 989572
­ 989031
fo 988979
sofort 988312
Not@@ 988066
lin@@ 987610
kra@@ 987130
schul@@ 986875
Nachrichten 986735
bietet 986252
scheint 986204
danach 984973
zwölf 984589
größte 983772
di 983601
sucht 983496
arbeitet 983294
wolle 982113
Jährigen 982021
ihres 981959
Bet@@ 981956
weisen 981771
bald 979770
Folge 977893
helfen 976065
Verfügung 975846
tel 974357
Fahrer 974326
ate 974054
brachte 973201
erreicht 972739
Bühne 972522
nachdem 971974
Gespräch 971708
Ko@@ 970674
Ho@@ 967240
app@@ 966776
bare 966514
mittel@@ 966183
Angebot 966104
wald 966008
len@@ 965794
fällt 965418
Deshalb 965346
Landes 963433
steigen 962773
Weil 962765
darunter 962442
ling 961902
braucht 961587
nahm 961540
Facebook 960999
Kultur@@ 960244
beispielsweise 959239
Flug@@ 958757
Schritt 958403
wahl 957628
Sa@@ 956486
ente 954018
längst 953168
bereit 953107
2008 952988
Straßen@@ 952685
sonst 952322
tu@@ 952005
8. 951515
schutz@@ 951364
arbeit 951334
tatsächlich 950618
Staat 949350
fri@@ 948330
me@@ 948171
gabe 947568
lichkeit 945737
Rahmen 944896
po@@ 944703
Tochter 944375
zei@@ 944076
Bundesregierung 943966
Spar@@ 943120
Hause 943055
treten 942089
Tod 941396
iger 940875
ven 940840
for@@ 940817
gende 939951
unterwegs 936885
du 936453
Raum 935835
Sicht 935693
anten 935321
gebiet 935166
fl@@ 934322
Kur@@ 934231
Seiten 932753
reichen 932675
Publikum 932442
Gegner 932056
wert 931912
lt 930880
q@@ 930341
geplant 930270
ent 929320
Experten 929270
Durch 928635
7. 927943
geführt 927447
mon@@ 927109
R 926828
Bericht 925987
Möglichkeit 925900
Geschäfts@@ 925616
Amt 925155
ön@@ 924460
Paris 924390
Kunst@@ 923445
Z 923410
völlig 923242
Türkei 922838
genug 922793
Sonder@@ 920471
raum 919878
© 919583
wollten 919547
et 919525
so@@ 919494
rech@@ 917968
Geld@@ 917832
Bel@@ 916966
Frank 916933
ms 916824
tiger 916193
jede 915366
Vergleich 914572
Gu@@ 914508
Stefan 913497
müssten 912949
oben 912741
20@@ 912613
verein 912299
igen 911595
beginnt 911447
tungen 911443
ße 911044
Autos 910653
hausen 909450
Firma 909175
Einen 908393
Täter 907681
Regierungs@@ 907624
ist@@ 907478
9. 906573
War@@ 905654
Zahlen 904775
vier@@ 904558
Alter 904334
Gei@@ 904193
ang 903567
meister 903556
schlag 903121
Jürgen 902055
schutz 900989
ren@@ 900051
Ost@@ 899739
Gebäude 899608
einander 899288
ori@@ 899271
no@@ 899211
Kraft 899178
3,@@ 899082
Gar@@ 898623
Behörden 898529
bereich 898055
führte 897472
morgen 897152
Dem 896982
ok@@ 896039
Zuschauer 895709
Stein@@ 894467
hinaus 891990
endlich 890180
Car@@ 890156
hof 889766
Ta@@ 889492
schließen 889457
Recht 888810
Stück 888450
Idee 888031
Form 886061
je@@ 885512
bieten 885331
Online 884211
lesen 883940
Orts@@ 883262
zogen 882955
hohen 882505
ack@@ 881674
elte 880610
Hälfte 880505
mm@@ 878938
Kollegen 878746
ord@@ 878592
par@@ 878425
eins 878416
Kor@@ 877967
hören 877616
Spiele 877595
gegangen 877258
erg@@ 876419
meinte 875903
Berg@@ 875806
29 874898
Luft@@ 874514
T 873959
tin 872459
Voll@@ 872131
Krise 872067
X@@ 872052
sah 871569
Rechts@@ 871185
Inter@@ 871025
zog 870421
ations@@ 869565
Daten 869285
genden 868979
Dafür 868613
re 868107
gewonnen 866831
großer 866187
europäischen 865387
seh@@ 865106
drei@@ 865051
Zusammen@@ 864678
kte 864474
Mehr@@ 863977
gestern 863795
1@@ 863441
gten 862554
tten 862053
L 861697
Sohn 861337
ys 861319
stellung 860885
Karl 860385
nämlich 860170
bil@@ 860080
17@@ 859814
entschieden 859700
Stelle 859199
Schw@@ 858993
wenige 858411
Staatsanwaltschaft 858219
tigung 858074
14@@ 858071
Niederlage 857489
Wien 857487
Tr@@ 857018
Sei@@ 856705
tieren 856578
dt 856414
Finale 856333
ds 856184
ali@@ 855967
af@@ 855905
erungs@@ 854063
nutzen 853866
Bilder 853766
nächste 853377
net 852621
Nieder@@ 852547
Insgesamt 852029
verkehr 851820
dete 851717
chef 851665
Alexander 851489
politik 851334
ismus 851256
fte 851230
darum 850388
Wel@@ 850251
Tore 849321
mittlerweile 849259
früher 849039
Teilnehmer 847567
su@@ 847274
bank 846375
brauchen 845926
13@@ 845915
schweren 845783
bevor 845754
M 845312
Fußball@@ 845172
Punkten 844580
ige 844416
erreichen 844316
Familien@@ 844255
Studie 844036
holen 843546
ga@@ 843482
stre@@ 843296
Lösung 842906
jedem 842814
nisse 842315
Syrien 842212
Bre@@ 841649
gesetzt 841077
führer 840898
zufrieden 839511
innerhalb 839307
sorgen 838983
Stunde 838912
Mi@@ 838399
schl@@ 838248
schrieb 838186
Weihnachts@@ 837972
versucht 837633
Zwei@@ 837460
Zeiten 837285
Sache 837193
forderte 837135
neuer 836290
stu@@ 836031
ek@@ 835728
ministerium 835248
Klaus 834908
rau@@ 834857
Du@@ 834819
ieren 834627
II 834247
York 833871
Angst 833734
Bahn@@ 833436
verlassen 832051
Geh@@ 831541
Wert 831255
Prozess 831100
Mehrheit 831098
chs 831078
suchen 830069
Mat@@ 830001
Zeit@@ 829779
Sen@@ 829757
ks 829388
beg@@ 828606
prä@@ 827998
durchaus 827935
32 827317
Obama 826892
bu@@ 825564
lungen 823380
Klasse 822610
Bereits 822566
onen 822469
Wald@@ 822012
Straf@@ 821986
nung 821837
Gegen 821355
kre@@ 821189
verein@@ 820502
sten@@ 820302
Dortmund 820103
N 820061
Gefahr 819487
Coach 818948
31 818552
gesp@@ 818164
ati@@ 818149
Lau@@ 818026
art 817935
Rennen 817037
Lie@@ 816953
ari@@ 816785
lat@@ 816663
Bevölkerung 816317
London 816301
16@@ 816214
bekommt 815503
jedes 815431
Unfall 815075
Urteil 814954
Markus 814953
Fri@@ 814926
ären 814845
fen@@ 814648
scht 813656
spiele 813199
Kan@@ 813120
Vertrag 813004
Koalition 812669
gek@@ 812292
ou@@ 811963
gleich@@ 811285
wor@@ 811245
tion@@ 811057
pro@@ 811023
The 810921
Heute 810848
Durch@@ 810555
tigkeit 810458
weg@@ 809497
Alt@@ 809327
zieht 809262
Geb@@ 808910
Interesse 808678
geschrieben 807448
gezogen 807433
links 807304
stei@@ 807300
# 806797
Ri@@ 806085
tlich 805799
ften 805111
Krieg 804784
Markt@@ 804704
gehe 804539
losen 804415
Buch@@ 804361
Boden 804108
ür@@ 803323
Chancen 802952
Glück 802813
Artikel 802738
DDR 802722
Geschäftsführer 802672
rat@@ 802381
Saison@@ 801407
warten 801339
bar@@ 801277
vorbei 801216
15@@ 800599
Drei 800548
300 800215
teil 800000
nahmen 799978
Tier@@ 799849
kur@@ 799848
Besuch 798738
tionen 798231
warum 797796
see 797749
Serie 797655
dennoch 797452
tigt 797294
Augen 796590
Krankenhaus 795741
Wohnung 795508
legt 795249
fs@@ 794879
Atom@@ 793746
bahn 793447
Zur 793140
aktuellen 793094
ons 792581
dig 791175
spieler 791111
Kra@@ 789743
Interview 788887
ität 788869
TSV 788060
ehemaligen 787730
Rede 786935
du@@ 786839
lebt 786151
Jahres@@ 785724
öl@@ 785446
tritt 784774
amm@@ 784703
mittel 784305
ia 784164
kn@@ 784020
Italien 783873
falls 783744
sam 783569
system 783277
ef@@ 783039
elten 782574
Treffen 782499
Teams 782183
Patienten 782111
Weise 781802
standen 781490
Schulen 780836
Champions 779614
spielte 779582
Präsidenten 779490
gleichen 779101
Gi@@ 778600
Aufgabe 777925
Gr@@ 777539
ko 777405
Richter 777260
nahe 775987
ose 775706
Sal@@ 775253
nte 774971
Grad 774966
Dar@@ 774934
hohe 774583
hingegen 774446
gewann 774037
lediglich 773873
entscheiden 773760
F 773679
Nor@@ 773591
Zusammenarbeit 773151
verfahren 772763
ff 772747
meist 772697
elf 772636
ziert 772303
betont 771864
gebaut 771823
derte 771464
Ball 771363
är 771192
Rie@@ 770662
Punkt 770557
lä@@ 770164
geschlagen 769095
DFB 769095
verschiedenen 768249
C 768199
Sommer@@ 767928
Energie@@ 767911
mehreren 767785
Hauptstadt 767737
Streit 767637
schreibt 766680
digen 766549
Band 766363
res@@ 766311
Gesundheits@@ 766101
Ju@@ 765103
unk@@ 764388
trifft 764332
Wort 764168
starken 763813
fragen 763782
öffentlichen 763752
handelt 763644
teil@@ 763596
lau@@ 763353
ig 763040
bisschen 763027
Br@@ 762943
äh@@ 762777
eri@@ 762751
rich@@ 762247
Pi@@ 762051
besteht 761871
Spaß 761642
O 761350
br@@ 761310
12@@ 761054
gespielt 760825
bek@@ 758339
Star@@ 757519
geld 757515
Hü@@ 757322
weltweit 755944
Holz@@ 754597
Dr. 754132
34 754006
Angela 753800
Ermittlungen 753748
beste 753644
Kal@@ 752919
gingen 752085
zen@@ 751724
Bri@@ 751330
33 750864
unser 750336
Soldaten 749909
oh@@ 749884
niemand 749778
art@@ 749518
Spielen 749276
aufgrund 748965
Aktion 748909
lö@@ 748392
fiel 748293
Baden 748147
Brand@@ 747618
Gewalt 747567
SG 747080
Daniel 746894
berei@@ 746455
lauf 746279
Gast@@ 746159
Umwelt@@ 745978
gerin 745358
Ba@@ 745141
zahlreiche 744326
Am@@ 744256
schreiben 743624
obwohl 743330
schwer@@ 742491
ppe 742448
kor@@ 741875
mein 741600
Con@@ 741559
Veranstaltung 741064
gaben 740998
inter@@ 740966
For@@ 740887
ehemalige 740779
lie@@ 740736
Bund 740503
programm 740320
kündigte 739846
Warum 739538
att@@ 739456
meint 739196
stieg 737600
ier 736374
Hannover 736200
Bal@@ 735640
lern 735353
digt 734654
Privat@@ 734385
Mal@@ 733971
Familien 733900
fel@@ 733799
Kat@@ 733536
Stimmen 732851
Griechenland 732785
tenden 732716
mo@@ 732622
mitteilte 732356
heiten 732227
Lü@@ 731765
Verfahren 731613
Kre@@ 731228
reich 731141
länger 731032
rie@@ 730525
Sh@@ 729110
Sk@@ 728729
gezeigt 728406
Pause 728365
erst@@ 728310
H 727914
kan@@ 727624
Oder 727619
Ra@@ 727581
erster 727262
son@@ 727094
Trotz 727015
traf 727001
siert 726665
Auftritt 726261
weder 726255
Dra@@ 726179
gewählt 725310
solle 725185
schön 725117
hand@@ 724151
36 724105
4,@@ 723534
Zwar 722932
cken@@ 722858
Dieses 722346
sta@@ 721629
wal@@ 721616
ac@@ 721405
Sie@@ 720918
zeiten 720673
AfD 720598
wenigen 720555
Nähe 720079
ganzen 719658
ini@@ 719462
gelten 718825
Leistung 718243
Halle 718173
gefallen 718155
schauen 718041
Landkreis 717923
Herbst 717878
Nachdem 717557
Hin@@ 716930
legte 716035
Münchner 715497
stra@@ 715153
Natur@@ 715053
Innen@@ 714785
solchen 714729
Sekunden 714618
ph@@ 714493
fälle 714363
glich 714122
Luft 713819
üch@@ 713791
str@@ 713619
pe@@ 713395
erfolgreich 712863
Ki@@ 712792
schei@@ 712568
Parteien 712449
Gest@@ 712066
Universität 711453
win@@ 711009
unden 710461
zentrum 709825
wär@@ 709547
haft 709544
Robert 709285
ner@@ 708769
Abschluss 707445
wieder@@ 707257
einzige 707130
uss@@ 707064
Rö@@ 706340
außerdem 706271
Folgen 706148
Konzern 706141
heraus 705021
Fehler 704782
gn@@ 704697
internationalen 704294
Polizisten 703752
Maßnahmen 703631
Deutschlands 703419
ließen 703298
angesichts 703183
schlag@@ 703159
chter 702888
äch@@ 702705
Mu@@ 702557
VW 702401
55 702109
rück@@ 702060
aufzu@@ 701736
hielt 701724
Bur@@ 701719
P 701563
Kri@@ 701543
hol@@ 701467
oll@@ 701379
land@@ 700193
schau@@ 699787
mischen 699627
punkt 699517
ra 699399
Bö@@ 698979
tä@@ 698364
kreis 697591
ation@@ 697419
aler 697054
geschichte 696126
nd 695834
5,@@ 694274
anderer 694149
Gemeinderat 693882
frie@@ 693713
Banken 693477
Beide 693117
Dinge 692884
reicht 692831
Leiter 692664
Kommission 692509
lernen 692390
Bau 692318
Heim@@ 692143
wichtige 691623
jahr 691293
ste@@ 691066
All@@ 690997
hren 690819
Hö@@ 690745
satz 690723
Ka@@ 690500
Winter 690084
Wil@@ 689820
Spitze 689180
ep@@ 689091
Gesch@@ 689001
Vergangenheit 688976
essen 688303
Die@@ 688257
Staat@@ 687527
oten 687030
bild 685873
gra@@ 685700
Sebastian 685456
Reihe 685437
wo@@ 685349
ette 684930
wechsel 684556
Lehr@@ 684248
Ren@@ 684165
dert 683400
rechnen 683371
Liebe 683054
Eis@@ 682576
wahr@@ 682266
anischen 682175
Win@@ 681919
bauen 681655
ho@@ 681590
schi@@ 681341
sowohl 680553
har@@ 680341
Vorsitzender 680223
are 680217
des@@ 680211
stag 680099
fuhr 680092
Hal@@ 679882
We@@ 679814
ierte 679646
las@@ 679378
bedeutet 679367
Je@@ 678531
trotzdem 678443
fahrer 677945
vorge@@ 677876
Berufs@@ 677125
früheren 676741
Rund 676260
Vertreter 676259
entwickelt 676256
verkauft 675739
Gri@@ 675503
Bild@@ 675116
Parlament 674653
sorgte 674625
Tiere 674222
Ist 674211
it 673882
Monat 673834
schem 673794
Gesetz 673785
preis 673759
Team@@ 673546
Rang 673435
Hau@@ 673208
Nummer 672953
ann@@ 672909
erinnert 672710
gu@@ 672367
Schluss 672182
darin 672043
Ja 671543
verk@@ 671487
Wegen 670875
sogenannten 670842
é@@ 670622
Plat@@ 670491
Debatte 670476
Co@@ 669357
2000 669233
Rot@@ 669222
gischen 669167
Tat 669058
wären 668948
Wit@@ 668738
do 668427
Min@@ 668373
Star 668248
mark@@ 667971
ks@@ 667908
Bor@@ 667709
eg@@ 667320
Hintergrund 667294
Video 666965
20. 666739
Heimat@@ 666609
wen@@ 666352
wider@@ 666301
halt 665829
Förder@@ 665570
oren 664645
IS 664478
stellten 664465
besch@@ 664378
gericht 663542
Ehren@@ 663397
Antwort 662567
Straßen 662539
gene 662330
Bunde@@ 662140
ppen 662108
Mensch 661843
Presse 661671
Zei@@ 661402
Terror@@ 661161
nete 661105
11.@@ 660977
Sitzung 660693
Auto@@ 660551
gs@@ 660429
Verhandlungen 660301
ober@@ 660208
Betriebs@@ 659614
Film@@ 659251
cks 659025
Spitzen@@ 658555
lich@@ 658392
Per@@ 658344
Weltmeister 658142
Bewegung 658017
Moment 657900
einst 657714
Themen 657653
sozialen 657643
na@@ 657574
ll@@ 656994
Gemeinde@@ 656757
wies 656657
jüngsten 656532
To@@ 655969
Ukraine 655942
Hinter@@ 655747
Fernseh@@ 655661
Kunst 655644
Twitter 655362
verhindern 654926
http 654721
welt@@ 654485
demnach 654469
Bildungs@@ 654442
ant@@ 654388
genen 654340
fu@@ 653995
meiner 653179
trägt 652897
jähriger 652759
bestätigt 651988
Meister 651286
machten 651257
freuen 651143
Club 650999
ek 650878
stischen 650601
ministerin 650462
Kurz 650341
Washington 649932
Ab 649311
ga 649043
Schmidt 648598
komplett 648422
Weitere 648126
passiert 648058
Joachim 648056
dliche 648025
ht 647848
eck 647825
reise 647800
Danach 647517
Dennoch 647471
Karriere 647266
plat@@ 647090
bert 646958
stets 646954
jemand 646738
sozial@@ 646643
tere 646442
dungen 646183
Spanien 645729
David 645728
mei@@ 645505
Ges@@ 645288
Ausstellung 645093
Mitglied 645072
Jugend 645030
Werner 644545
bruch 644429
groß@@ 644067
sieg 643296
Rettungs@@ 643232
wür@@ 643070
Sel@@ 642850
selbst@@ 642758
15. 642666
tal 642623
Kn@@ 642223
Hamburger 641932
Tre@@ 641162
stärker 641064
ani@@ 640800
zierte 640324
Moskau 640298
Suche 640284
Sach@@ 640280
lose 640192
Christ@@ 640047
6,@@ 639972
Lin@@ 639811
Medien@@ 639568
uten 638959
starke 638808
é 638770
Drei@@ 638547
Reise 638387
kämpfen 637322
Jugendliche 637260
voller 637137
üb@@ 637129
Bra@@ 637124
wir@@ 637105
sierung 636814
Schweizer 636644
Euro@@ 636536
Hoffnung 635973
anische 635926
trag@@ 635888
Weiter@@ 635261
frühere 635118
alität 634874
Schn@@ 634867
getötet 634493
Jugendlichen 634372
37 634224
System 634048
Geschäft 633792
Natürlich 633512
Stand 633358
Paul 632989
mag 632985
Amts@@ 632904
Schließlich 632619
Gastgeber 632549
Ausland 632512
strei@@ 632478
uren 632445
wirkt 632374
Möglichkeiten 632198
terin 631939
Tages@@ 631708
ierten 631393
schn@@ 630790
Ti@@ 630643
bacher 630583
Heimat 630361
ven@@ 630336
hinter@@ 630148
begann 630123
recht@@ 629938
ders 629869
teilen 629827
j 629796
ül@@ 629172
aner 629165
Kranken@@ 628959
ard 628161
Schwer@@ 627976
Stimmung 627796
Vereins@@ 627734
Linie 627674
Matthias 627232
Leipzig 627057
vo@@ 627016
ade 626429
Arbeiten 626250
alter 626144
schluss 625900
Vorstand 625742
lle 625598
unde 625570
ändern 625552
Metern 625499
angekündigt 625490
tte 625447
Öffentlichkeit 625434
Franz 624638
Gruppen 624623
Borussia 624485
Ministerpräsident 624286
entfernt 624108
Tat@@ 623769
Ergebnisse 623472
400 623406
unterstützt 623092
ll 623061
ett@@ 622884
lauf@@ 622178
EM 622120
großes 621654
Teil@@ 620908
ator 620879
Wir@@ 620693
genutzt 620539
stische 620413
klasse 619552
teile 619532
schuss 619204
Meinung 619046
verantwortlich 619030
inn@@ 618894
Grenzen 618842
Freude 618495
meinen 618362
heits@@ 618214
Fin@@ 618161
Tro@@ 617948
vierten 617688
ester 617537
42 617485
30@@ 617333
greifen 617299
heraus@@ 617156
versuchen 617106
Gespräche 616829
iz@@ 616118
nt 615414
fern 615169
erwarten 615151
75 614272
Schl@@ 613999
wirtschaft 613913
Wi@@ 613899
erkennen 613854
San@@ 613839
Freunde 613641
Go@@ 613019
Verantwortung 612877
19. 612849
Lauf@@ 612751
Prä@@ 612716
folgen 612243
Mö@@ 612167
und@@ 612016
anderes 611760
zieren 611672
assen 611608
Hu@@ 611564
fehlt 611480
reisen 611186
ses 610818
Eigen@@ 610627
No@@ 610465
tt 610405
Doppel@@ 610232
Lehrer 610052
nten 609750
UN 609709
Essen 609365
fol@@ 608997
ersch@@ 608871
Schweiz 608362
ren 608028
rechts 607490
tert 607326
Nein 606940
Ros@@ 606874
ständig 606848
sto@@ 606807
sei@@ 606555
reden 606074
nötig 605553
mal@@ 605056
Brüssel 605020
begonnen 604436
gelang 604273
Ausbildung 603967
Schle@@ 603855
13. 603614
1.@@ 603588
mögliche 603513
tik 603512
ls 603340
Schaden 603334
Angriff 603279
VfB 603250
stä@@ 603178
fall@@ 603086
Treffer 602699
2007 602504
tter 602374
schte 602278
Künstler 602231
dadurch 602123
Ehr@@ 601762
gemeinschaft 601454
tion 601393
Lö@@ 600472
Antrag 600330
dlich 599903
spro@@ 599657
1000 599645
vereins 599634
bisherigen 599514
Düsseldorf 599390
erer 599099
Te@@ 598744
volle 598547
Personal@@ 598137
Grenze 597942
Ban@@ 597845
geschafft 597616
häufig 597387
Werk@@ 597359
Besonders 597322
Top 597084
Partner 596694
Betrieb 596444
aufs 596082
Israel 596044
gesellschaft 595949
Licht 595802
Grenz@@ 595659
Osten 595247
möglichst 595242
Agentur 595097
steigt 594693
ats 594540
möglichen 594520
Wein@@ 594490
Macht 594450
esen 593962
tw@@ 593909
gesetz 593646
Bundestag 593640
Herz@@ 593600
ffen 593130
Has@@ 592826
öffentlich 592817
Ei@@ 592810
Kein 592695
one 592469
General@@ 592469
VfL 591921
Hil@@ 591813
Mor@@ 591574
9,@@ 591486
Rathaus 591414
schafts@@ 591300
Fotos 591299
Netz 591296
Do@@ 591255
Alters@@ 591221
geln 590920
ki@@ 590789
Stiftung 590771
Kurz@@ 589514
Mei@@ 589298
aktiv 589206
gestiegen 589023
getroffen 588954
park 588918
Josef 588853
selten 588603
Hinweise 588333
Kr@@ 588130
führ@@ 588048
Kanzlerin 588022
teilweise 588010
schen@@ 587443
Schlag@@ 587200
schlagen 587118
unternehmen 587032
schwere 586959
Manager 586763
Top@@ 586286
Grün@@ 585931
jedenfalls 585730
Zeitpunkt 585676
kaufen 585644
Konzept 585557
Beamten 585347
mat@@ 585173
Preis@@ 585124
ausschuss 585044
Maria 584639
Super@@ 584531
weist 584180
spar@@ 584100
fein@@ 584063
Kauf@@ 583910
stehe 583023
tag@@ 582851
ther 582776
betroffen 582722
kraft 582377
ckte 582059
sitzen 581820
gefragt 581792
sport 581630
keiner 581603
Erd@@ 581348
Plan 581187
Kultur 581144
Tour 580964
Pu@@ 580778
vollen 580669
trat 580619
tik@@ 580482
fra@@ 580293
unseren 580146
ost 579900
Vorjahr 579795
Alles 579769
ett 579672
Kirchen@@ 579599
Engagement 579375
Pol@@ 579191
150 578651
bewusst 578583
kennen 578474
bri@@ 578312
Walter 577208
ologie 577027
Uni@@ 576786
ban@@ 576723
Fre@@ 576433
38 576400
geschlossen 576355
gemeinsamen 576243
droht 576175
Stellen 575937
Mark@@ 575929
Westen 575744
ex@@ 575592
43 575489
ci@@ 575396
Bremen 575114
plötzlich 575024
russischen 574931
Immer 574889
bericht 574802
fordern 574654
lige 574587
ver 574493
48 574480
lig@@ 574469
14. 574301
Jeder 574236
Ohne 573566
Neue 573512
gesprochen 573477
osen 572864
ve 572714
gem@@ 572668
sieren 572624
Heinz 572554
testen 572066
hö@@ 572013
Kurs 571917
yer 571892
erei 571150
aktualisiert 570218
Mittel 569930
Friedrich 569679
Pe@@ 569579
Regel 569487
wirk@@ 569327
Turnier 569064
seite 569043
Vielleicht 568637
fung 568504
müsste 568457
Diskussion 568124
.30 567862
schlecht 567767
unver@@ 567375
ohnehin 567297
kennt 567033
11. 566776
24@@ 566416
ese 566193
sor@@ 566129
sicher@@ 566114
Strecke 565946
Kontakt 565736
Mün@@ 565698
sorgt 565282
Schutz 565050
tner 564772
Zwischen@@ 564703
Job 564596
wirken 564588
iner 564581
Kontrolle 564500
Flughafen 564289
Gesicht 564194
nieder@@ 563513
Position 563346
Kol@@ 563284
8,@@ 563179
Menge 563015
ad 562890
Feuer 562811
Selbst 562274
Bedeutung 561748
feiern 561727
Lan@@ 561704
ordnung 561670
18. 561627
son 561518
halle 561093
gesamte 560932
französischen 560930
ke@@ 560815
bli@@ 560597
Rat@@ 560594
Anteil 560275
Kandidaten 560129
30. 559953
lieber 559949
Organisation 559882
deutscher 559722
tan@@ 559114
tro@@ 559066
Württemberg 559005
gesamten 558804
65 558758
bl@@ 558728
diesmal 558539
Google 558485
Wagen 558427
10. 558333
regelmäßig 558318
neten 558185
Blut@@ 558167
gerechnet 557832
nahme 557749
aufgenommen 557665
gehabt 557619
Motto 557473
ds@@ 557356
offen@@ 557162
Show 556864
Freund 556671
sion 556433
End@@ 556344
emp@@ 556220
erh@@ 556004
sprecher 555934
richten 555792
hel@@ 555532
Todes@@ 555402
Jo@@ 555288
Kö@@ 555201
itäten 554993
versammlung 554891
vers@@ 554557
rö@@ 554311
bekam 554197
Musiker 554110
bestätigte 554082
Schön@@ 553559
Autor 553298
täglich 553088
Wechsel 553067
Zusammenhang 553015
ches 553003
7,@@ 552316
Dieter 552309
err@@ 552232
digung 552218
rechts@@ 551830
Krei@@ 551687
Firmen 551448
Jungen 551439
Bus@@ 551417
linge 551406
17. 551034
nah@@ 551013
gelassen 550932
Verwaltung 550876
bern 550436
stes 550325
Schei@@ 550152
utz@@ 550104
dische 550097
41 549819
aut 549726
igt 549648
zählt 549577
überzeugt 549433
beck 549402
fort@@ 549398
Konzert 549336
Sau@@ 549081
erfahren 548958
Wetter 548618
Post 548575
Preise 548533
stige 548224
Gefühl 548202
ote 548071
chs@@ 547999
unterstützen 547990
2006 547888
Erfahrung 547720
hr 547661
la 547613
übernehmen 547543
trä@@ 547436
öh@@ 547185
Fra@@ 546712
stisch 546689
ane 546610
sport@@ 546536
schützen 546414
Wind@@ 545847
Kapitän 545732
insbesondere 545725
stände 545685
16. 545507
gehalten 545370
Ad@@ 545368
Rau@@ 545168
Rot 544921
10.@@ 544885
Men@@ 544825
maßnahmen 544545
erhielt 544438
neu@@ 544087
Einige 544075
los@@ 544052
runde 544003
Opposition 543573
Bes@@ 543530
Sieger 543416
dritte 543136
Werk 543128
Hä@@ 542819
12.@@ 542597
weite 542351
Jan 542344
genannt 542261
tiges 541776
AG 541701
Hol@@ 541492
entgegen 541113
tierte 540863
Fällen 540476
44 540409
Drittel 540386
Mer@@ 540018
Zeichen 539413
Wol@@ 539281
leisten 539169
gesperrt 538963
Hor@@ 538958
verschiedene 538792
Flu@@ 538649
gelt 538281
tau@@ 538279
kat@@ 538208
beginnen 537681
Jan@@ 537628
stand@@ 537605
Technik 537531
52 537510
geplanten 537434
erungen 537425
Kriegs@@ 537371
beschäftigt 537362
sche@@ 537345
zugleich 537267
hofft 537245
amerikanischen 537187
ass@@ 537096
Nachmittag 537086
wa@@ 537017
ball 536129
Frauen@@ 536046
bauer 535869
früh 535774
vertrag 535748
Ben@@ 535497
ast@@ 535444
Nutzer 535319
tierten 535038
sich@@ 535004
frühen 534735
Militär@@ 534628
Satz 534599
uli@@ 534309
Reise@@ 534196
unten 534023
21. 534010
dlichen 533897
Dor@@ 533862
hoffen 533727
ak 533632
schrift 533592
anlage 533005
Morgen 532804
mb@@ 532791
kampf 532631
Journalisten 531996
anti@@ 531960
aktuell 531722
Mail 531166
Sachsen 531155
zeigten 531090
Por@@ 530915
kung 530695
tsch@@ 530461
zahl 530459
Großbritannien 530446
Kreuz@@ 530430
Wo@@ 530235
angeboten 530231
sitzt 530020
üh@@ 529845
behörde 529714
tut 529631
Dem@@ 529320
gens 529283
unbedingt 529177
gefordert 529076
freien 528906
39 528760
Sprecherin 528740
Ziel@@ 528627
the@@ 528522
fü@@ 528042
sogenannte 527788
unklar 527748
Ni@@ 527597
ktionen 527559
Ir@@ 527313
51 527287
brechen 526988
Autofahrer 526988
dor@@ 526811
Training 526702
dank 526667
gleichzeitig 526610
jährlich 526601
buch 526467
ore 526388
herr@@ 526383
Bildung 526302
fil@@ 526150
schef 525920
ann 525919
erz@@ 525612
Einsatz@@ 525327
laden 525247
fo@@ 525123
Nachfrage 524987
met@@ 524956
Pläne 524948
tal@@ 524758
deut@@ 524687
ziemlich 524556
Fischer 524387
Pal@@ 524109
ump@@ 523936
hinzu 523671
tags 523595
Pri@@ 523205
tende 523200
Ü@@ 523104
tter@@ 523077
Stad@@ 522788
setzung 522655
kar@@ 522568
soziale 522436
Liste 522435
Bernd 522388
Hotel 521840
nachmittag 521808
fällen 521777
Max 521320
25. 520975
Sol@@ 520844
kap@@ 520445
wie@@ 520423
ehr@@ 520385
Keine 520360
heutigen 520255
hart 520205
fach@@ 520197
Fahrzeuge 520194
Zentrum 520115
Vom 519970
fanden 519846
Frankfurter 519759
Im@@ 519684
lösen 519565
nis@@ 519213
Kölner 519150
hl 519069
beteiligt 518972
gl@@ 518891
entdeckt 518866
lers 518318
Grüne 518180
Stadion 517762
Museum 517595
Apple 517551
denk@@ 517294
Wiener 517261
gruppen 517036
Ganz 516979
leitung 516923
betrieb 516905
Konkurrenz 516893
Verkehr 516790
Wettbewerb 516576
gutes 516547
Linke 516407
anschließend 516384
Ärzte 515872
zeichen 515388
Forscher 515342
Neben@@ 515038
eingesetzt 514718
Vereine 514679
Leistungen 514368
pfen 513910
gedacht 513612
Madrid 513391
Gerade 513064
werfen 513002
rechten 512590
Szene 512269
Demokratie 511638
lten 511492
kti@@ 511330
ta 510862
zahlreichen 510825
Schwarz 509548
Park@@ 509469
Vier 509166
miert 509117
Fal@@ 508846
amen 508562
12. 508374
eröffnet 508362
sm@@ 508196
Fern@@ 508182
erenden 508170
ess@@ 508158
Tabellen@@ 508139
ungsh@@ 508123
Wunsch 507916
nannte 507813
Eu@@ 507774
schä@@ 507589
lief 507523
Wild@@ 507239
verdient 507201
entstehen 506913
geboren 506827
Iran 506729
Leitung 506499
Kir@@ 506484
Strom@@ 506383
holte 506135
Person 505762
Aufgaben 505715
Gleich@@ 505633
eit 505524
inen 505364
Verein@@ 505352
rechte 505171
stoff@@ 504716
Natur 504630
vermutlich 504601
Pre@@ 503979
Europäischen 503754
cker@@ 503396
Rekord@@ 503235
Wander@@ 503108
weiterer 502952
schie@@ 502867
tief 502803
acher 502657
Früh@@ 502503
Fahrzeug 502475
ju@@ 502063
flü@@ 501536
Tisch 501336
Feuer@@ 501322
aren 501309
ana 501221
kritisiert 501216
fährt 501192
schrei@@ 501141
regi@@ 501080
Philipp 501041
Fel@@ 501013
trau@@ 501003
Horst 500952
Duell 500935
verurteilt 500895
getan 500661
leider 500420
Außenminister 500410
Wo 500140
beschlossen 500084
Auftakt 499718
Gabriel 499716
oni@@ 499514
John 499469
bet@@ 499361
Eintracht 499303
auen 499080
Pet@@ 499073
passen 498834
zig 498717
Hy@@ 498640
Nachfolger 498462
mach@@ 498457
Daten@@ 498437
wunder@@ 498143
Polen 497990
Chef@@ 497862
Auftrag 497844
Dan@@ 497494
politisch 497488
pen@@ 497431
ns 497244
freut 497137
ski 497053
Quelle 496851
Pa@@ 496602
Schalke 496579
Sachen 496368
Sonne 496344
Qualität 496331
schaft@@ 496129
go 496110
teilt 495788
Wald 495543
Pan@@ 495460
einzelnen 495241
2.@@ 495165
sheim 495026
kal@@ 494951
zierten 494942
Anspruch 494656
zeichnet 494630
Stamm@@ 494607
Nachrichtenagentur 494574
schau 494100
gische 493930
mü@@ 493763
Sprache 493713
nennt 493584
glaubt 493575
üs@@ 493223
stell@@ 493214
geraten 493002
Lang@@ 492741
Herr 492098
plan@@ 492025
04 491943
Dank 491625
zeu@@ 491372
Seehofer 491273
druck 491178
Ski@@ 491175
plant 491095
Ker@@ 490932
Fast 490703
Sor@@ 490481
Erst@@ 490397
fehlen 490270
ligen 490050
Schauspieler 489542
gefeiert 489531
träge 489511
Stra@@ 489358
dige 489182
BVB 489078
mis@@ 488478
Plan@@ 488130
erinnen 488061
Christoph 487324
Insel 487280
49 487139
stätte 487092
kostet 487086
licht 487072
Rein@@ 487022
zut@@ 486975
satz@@ 486772
itz@@ 486342
wichtiger 486092
verlor 485910
Ruhe 485907
Regional@@ 485902
Gründen 485786
sprache 485766
est 485725
wä@@ 485688
Zuvor 485683
Sonnen@@ 485440
gelte 485150
22. 485135
47 484769
fre@@ 484702
glichen 484637
mische 484533
teils 484515
vorne 484317
länder 483973
san@@ 483873
mitt@@ 483661
Verwaltungs@@ 483227
Zweifel 483102
vorher 483101
Telefon 483100
wahrscheinlich 482677
fj@@ 482475
manchmal 482463
Renn@@ 482429
rein@@ 482428
Stimme 482361
Sender 482269
Bro@@ 482065
gearbeitet 482035
Ul@@ 481585
Strei@@ 481527
folgt 481476
Nachbar@@ 481347
stet 481294
Handels@@ 481281
ings 480796
gän@@ 480744
Sü@@ 480672
vorstellen 480552
Kli@@ 480516
Start@@ 480498
sum@@ 480477
Verb@@ 480456
sicht 480146
geschäft 480054
wiederum 479998
Leistungs@@ 479778
Real 479538
Georg 479234
tor@@ 479094
geholt 479041
Unfall@@ 478891
lebens@@ 478839
gerufen 478696
Dienst 478578
Gas@@ 478462
Ihnen 478390
wichtigen 478282
old 478242
dürften 478091
Johannes 477851
Zuletzt 477818
endet 477596
vertreten 477576
chtung 477538
Eindruck 477475
gemeinsame 477453
46 477387
welt 476733
Wohnungen 476639
informiert 476512
Schutz@@ 476331
Veranstaltungen 476212
unge@@ 476164
les 476137
Brand 475992
Pla@@ 475925
Zug 475774
Han@@ 475667
endes 475600
erhält 475522
heimer 475280
achten 474841
Sil@@ 474831
Mercedes 474742
Plätze 474610
Kopf@@ 474420
amp@@ 474387
Oster@@ 474347
Erde 473982
jene 473853
aktuelle 473719
ute 473402
Halb@@ 473256
sionen 473195
verstän@@ 473127
Vier@@ 472925
Kommunen 472804
wichtigsten 472796
Sand@@ 472713
City 472706
Worten 472637
setzten 472635
Frühjahr 472446
Europas 472393
ppen@@ 471912
reifen 471896
Gelände 471805
reich@@ 471759
Initiative 471705
Dis@@ 471474
Tür 471465
Mag@@ 471374
mün@@ 471346
Teile 471058
hau@@ 470974
übrigens 470533
mie 470342
Haft 470304
vorsitzende 470016
ow 469918
hi@@ 469823
notwendig 469788
beendet 469142
entwickeln 469024
Stu@@ 468819
funktioniert 468780
aden 468605
kri@@ 468258
richtige 468171
Brasilien 468169
beru@@ 468047
Hersteller 468003
ähnlich 467879
britischen 467718
Minister 467505
ien 467461
Verletzungen 467440
tens 467345
fa@@ 467307
lichkeiten 467114
Energie 467094
läu@@ 467037
Halbzeit 466818
ech@@ 466533
Ah@@ 466357
Bedingungen 466332
bra@@ 466248
haltung 466231
gar@@ 466208
Fälle 466189
Pat@@ 466163
dungs@@ 466086
gemein@@ 466036
Dienst@@ 465790
Löw 465710
27@@ 465642
up@@ 465197
Gedanken 465174
festgenommen 465021
Krisen@@ 464982
ete 464915
fühlen 464573
ure 464537
iges 464409
Test@@ 464407
glaube 464364
ermittelt 464145
verstehen 464130
diert 464031
Vo@@ 463669
erklären 463598
sig 463442
rot 463425
glauben 463275
bte 463166
guter 463143
Da@@ 463005
immerhin 462878
Erfahrungen 462852
imp@@ 462772
Theater 462737
Main 462683
schu@@ 462637
Roll@@ 462558
ort@@ 462544
Freiheit 462543
Norden 462535
wand@@ 462041
Tu@@ 461928
Helfer 461795
van 461719
bessere 461674
gei@@ 461654
dauert 461375
leistung 461364
Brü@@ 461118
endorf 461100
Putin 461067
hilft 461062
blieben 460924
fäl@@ 460723
Dach@@ 460555
digte 460500
Karten 460499
somit 460391
Kirch@@ 460343
S. 460329
Hör@@ 460254
0er 460176
24. 460054
dischen 460046
Fest 459950
Anhänger 459832
ment@@ 459774
liga 459674
Presse@@ 459602
vorzu@@ 459600
ku@@ 459271
geblieben 459069
28@@ 458881
Rhein@@ 458602
wel@@ 458574
800 458558
Vorwürfe 458453
gefähr@@ 458326
mehrfach 458289
wur@@ 458242
Schö@@ 458066
05 457615
Herz 457608
Fol@@ 457543
schten 457474
offiziell 457114
gem 457050
präsentiert 457011
Bewohner 456986
Haup@@ 456902
halte 456897
leu@@ 456846
Fe@@ 456693
ro 456637
ante 456637
höher 456514
Körper 456506
ide@@ 456464
Anschluss 456431
Worte 456412
pp 456360
gewal@@ 455822
Umgang 455804
ath@@ 455760
stimmen 455719
zahl@@ 455415
Fuß 455177
Tab@@ 455034
gefahren 455009
Pflege@@ 454956
werke 454834
Helmut 454767
Gold 454766
Kin@@ 454625
Geburtstag 454496
gegen@@ 454433
Regeln 454249
rechnet 454246
nissen 454214
internationale 454112
atur 454109
mitglieder 454023
nungen 454022
rän@@ 453878
2005 453753
arbeits@@ 453426
stru@@ 453368
netz@@ 453342
hervor 453328
{ 452934
galt 452879
Jörg 452850
König 452840
kommen@@ 452831
Sitz@@ 452717
ors 452707
genauso 452648
ed 452629
gebrochen 452561
Wur@@ 452405
weiteres 452378
Verkauf 452356
zes 452251
ßt 451846
Pop@@ 451598
Augen@@ 451481
96 451129
Ermittler 451105
Bon@@ 451076
nis 451040
fla@@ 450886
pre@@ 450699
Vereins 450691
hardt 450658
Gewinn 450617
23. 450609
iel@@ 450483
Stre@@ 450422
möglicherweise 450351
schlug 450343
Len@@ 450202
singen 450042
größ@@ 450031
stecken 449960
besondere 449785
gefährlich 449685
Standort 449398
Formel 449188
tigten 449001
GmbH 448882
vergessen 448853
Wes@@ 448703
unserem 448625
bedarf 448621
misch 448589
kräfte 448280
Studenten 448214
Bayer 448197
ton 448084
gan@@ 448070
Bl@@ 448039
positiv 448009
form 447924
na 447810
600 447747
Ideen 447443
tor 447435
sc@@ 447336
ino 447002
Gut 446927
Schwei@@ 446859
Rückkehr 446813
Tö@@ 446810
Wähler 446773
Wege 446248
Fahrt 446152
Roman 446122
Mau@@ 445931
X 445824
verlieren 445796
Char@@ 445571
erende 445537
aufen 445512
laufenden 445405
Tau@@ 445378
mann@@ 445343
Jung@@ 444962
startet 444871
versorgung 444810
ales 444802
Kern@@ 444736
Fein@@ 444624
ec@@ 444586
zw@@ 444543
Pfarr@@ 444496
Wahlkampf 444494
online 444429
Eck@@ 444345
Risiko 444298
nor@@ 443831
starb 443656
Sanierung 443643
get@@ 443631
gelungen 443612
abgeschlossen 443503
überraschend 443409
Gast 443407
erlebt 443147
Oliver 443113
Armee 443059
Pfarrer 443044
Fernsehen 443009
Zeugen 442904
stück 442845
Al 442749
komme 442727
passt 442719
fach 442685
Schi@@ 442612
Mario 442582
sehe 442511
folgte 442422
opp@@ 442380
Umfrage 442339
stoff 442274
enburg 442235
nen@@ 442209
übernommen 442107
Derzeit 441945
54 441870
stolz 441625
Roh@@ 441590
etten 441471
verzichten 441449
pr@@ 441418
geplante 441206
Zuschauern 441180
setz@@ 440914
fertig 440788
Öl@@ 440600
Dax 440577
abend 440452
spruch 440418
indes 440391
britische 440110
co 440011
Eing@@ 439650
überall 439608
Feuerwehr@@ 439491
bilden 439448
plan 439353
bs@@ 439200
reg@@ 439049
Obwohl 438886
Gre@@ 438844
entwicklung 438806
enti@@ 438786
finde 438698
Botschaft 438639
Gerhard 438637
Gruppen@@ 438400
Bezirks@@ 438390
ick@@ 438344
such@@ 438271
NRW 438081
gänge 438059
Hen@@ 437987
Em@@ 437843
Olympia 437502
Handel 437492
zusätzlich 437472
dien@@ 437405
Bundeswehr 437352
tend 437135
werte 436943
ARD 436675
Barcelona 436517
elt@@ 436476
frage 436470
Hessen 436375
mar 436288
Afghanistan 435935
we 435736
Dre@@ 435666
Si@@ 435540
schneller 435403
mehr@@ 435308
punkte 435237
Mitteilung 435184
außer 435157
Volk@@ 435139
Produkte 435123
hän@@ 435096
Menschen@@ 434992
mus@@ 434963
europäische 434938
starten 434922
bad 434871
28. 434848
sischen 434743
bs 434579
wachsen 434554
Rich@@ 434308
lungs@@ 434259
liegenden 434180
Mas@@ 433946
onn@@ 433791
steuer 433765
moder@@ 433646
melden 433610
eingeladen 433494
Dreh@@ 433412
Ä@@ 433216
Schulden@@ 432967
Anfrage 432890
cher@@ 432886
HSV 432578
dahin 432408
ischer 432390
Freiburg 432132
Titel@@ 432111
Ball@@ 432035
Gru@@ 432024
linken 431642
schlägt 431610
saal 431591
entlich 431489
Reg@@ 431488
ativ 431234
Kampf@@ 431162
ott 431159
letztlich 431055
start 430871
Mannschaften 430829
Erklärung 430827
Bas@@ 430815
steckt 430692
Flüchtlings@@ 430667
ue 430603
kel 430539
Urlaub 430505
freie 430460
berichten 430181
hängen 430090
Auswahl 430083
anz 429975
holt 429969
As@@ 429695
Wolfsburg 429525
ick 429513
Fu@@ 429292
verbunden 429241
Raum@@ 429185
dende 429168
Kas@@ 429128
Versuch 429119
Cup 428962
Gemeinden 428938
veröffentlicht 428929
53 428774
befindet 428394
Mis@@ 428175
weiler 428036
95 427992
Uwe 427920
Pap@@ 427849
Beitrag 427845
Schneider 427515
Tä@@ 427476
haus@@ 427464
aup@@ 427327
Donald 426902
alisierung 426815
Verbindung 426717
Fünf 426579
Allein 426531
erleben 426472
tig@@ 426449
schal@@ 426415
kran@@ 426234
Renten@@ 426198
Wochen@@ 426184
mache 426179
russische 426145
indem 426132
nde 426127
Massen@@ 425865
tätig 425848
Gründe 425791
Einer 425775
lang@@ 425504
musik 425422
sitzung 425300
Brau@@ 425292
Mari@@ 425009
asse 424845
ic@@ 424736
tagen 424682
Projekte 424479
bezeichnet 424383
27. 424365
Gelegenheit 424318
Wetter@@ 423777
stän@@ 423745
istischen 423664
fort 423627
schwierig 423577
Arbeitgeber 423435
sätze 423402
Nationalspieler 423339
Institut 423331
Ram@@ 423326
Schulz 423300
Kno@@ 423204
ini 422587
mes 422537
Linken 422447
lig 422381
Damen 422274
gesorgt 422238
ball@@ 422232
mung 422187
bur@@ 422178
Sinn 422053
stunden 422036
geber 421924
Alten@@ 421922
26. 421900
län@@ 421771
Du 421623
manche 421498
bung 421443
öffentliche 421385
ass 421086
Arena 420985
25@@ 420967
bildung 420884
gers 420725
dan@@ 420557
mitten 420539
Op@@ 420441
gg@@ 420378
Wohl@@ 420248
Arzt 420116
Florian 420023
durfte 419654
Erste 419556
schließt 419484
Trau@@ 419469
änden 419388
Marke 419357
produ@@ 419143
entstanden 418891
Gemein@@ 418822
Les@@ 418605
legung 418449
Schluss@@ 418060
Also 418023
2019 417632
Mel@@ 417444
Fraktion 417400
Teilnahme 417342
pe 417107
_ 417064
Basis 417025
schafft 416777
schloss 416715
Profi 416655
ahn@@ 416620
enth@@ 416616
Nürnberg 416473
Elektro@@ 416197
erzielte 416034
Vorschlag 416023
alisten 415835
Anti@@ 415682
stigen 415548
Park 415279
Japan 415164
wehr@@ 415099
Vertrauen 414930
Hermann 414910
gert 414905
Ster@@ 414865
Gew@@ 414747
heißen 414474
igung 414409
Sy@@ 414307
tigte 414271
wobei 414236
arten 414063
rief 413984
stör@@ 413841
Verlag 413676
fähigkeit 413413
kö@@ 413297
Plus 413053
sü@@ 413037
weis 412976
kurs 412855
aller@@ 412647
fläche 412616
elles 412590
nungs@@ 412347
Tur@@ 412267
mel 412235
Spezial@@ 412161
Bank@@ 412069
zel@@ 411860
derten 411857
bekannten 411839
fragt 411780
abgesch@@ 411775
größere 411764
Justiz@@ 411763
partei@@ 411683
ce 411644
relativ 411629
begeistert 411493
Damals 411491
wirft 411477
Bru@@ 411351
Gro@@ 411228
Techni@@ 411168
klare 410882
schulen 410824
Trotzdem 410765
zur@@ 410753
grund@@ 410679
Rom@@ 410633
Herr@@ 410627
Verkehr@@ 410585
Sorgen 410525
Lande@@ 410519
Pau@@ 410444
richtigen 410435
wasser 410363
dauern 410285
ativen 410255
Bruder 410089
offenen 409910
ZDF 409840
lei 409825
denden 409754
wartet 409631
ena 409621
nennen 409616
stik 409538
56 409463
Stürmer 409310
auff@@ 409229
prü@@ 409180
Ziele 409010
Gipfel 408816
falsch 408777
Dorf@@ 408725
Koch 408624
Bisher 408587
selben 408573
Waffen@@ 408564
Wolf 408542
enzen 408471
hafte 408348
häuser 408327
az@@ 408152
Bilanz 408146
wechsel@@ 408119
llen 407927
entgegen@@ 407925
Kraft@@ 407679
uner@@ 407476
grün@@ 407428
ca 407423
@ 407296
spoli@@ 407291
vorerst 407010
Ralf 406887
Fisch@@ 406883
ack 406861
Waffen 406769
dorfer 406753
dre@@ 406193
lautet 406156
arbei@@ 406151
Fuß@@ 406041
extrem 406032
stoß 406001
Schu@@ 405901
langsam 405899
Angebote 405848
Details 405818
bzw. 405714
station 405698
Demonstranten 405684
via 405654
Vorstellung 405596
mern 405550
herrscht 405432
beh@@ 405344
Häuser 405332
Entscheidungen 405223
Generation 405193
Produ@@ 405108
einiges 405046
iniert 404884
Forderung 404654
igkeit 404556
gliche 404339
Zie@@ 404318
Wohnungs@@ 404234
Fehl@@ 404202
beu@@ 404042
Tarif@@ 404006
erische 403956
Vorsitzenden 403826
Pkw 403790
zehn@@ 403703
stehenden 403682
Name 403499
Sollte 403377
Haushalts@@ 403310
Vorstands@@ 403174
Dresden 403042
mor@@ 403030
Sänger 402928
ers@@ 402926
kli@@ 402922
Halbfinale 402851
kleiner 402790
Verband 402781
ev@@ 402648
stan@@ 402593
Karte 402509
Herren 402459
kritisierte 402385
schwarz 402280
linger 402258
Q@@ 402247
meinem 402174
daten 402051
Bus 401959
sach@@ 401905
Strom 401869
EZB 401835
Städten 401766
Manfred 401645
woh@@ 401623
Studien@@ 401545
57 401517
Schau@@ 401383
Pil@@ 401300
ss 401270
schle@@ 401263
zweimal 400977
sä@@ 400890
hilfe 400766
feiert 400763
Schwarzwälder 400627
behalten 400353
Zugang 400278
Garten@@ 400269
daraus 400266
Ausbau 400223
Rückstand 400055
Mein 400024
strafe 399935
Einfluss 399912
Fi@@ 399829
ps 399697
Aussage 399496
zäh@@ 399461
Zunächst 399458
kun@@ 399095
egal 398868
schießen 398837
ron@@ 398748
Bord 398741
schär@@ 398703
wäl@@ 398650
Sub@@ 398355
mie@@ 398236
ander@@ 398142
Ausgleich 398133
asi@@ 398101
Internet@@ 398014
schöne 398001
star@@ 397852
á@@ 397798
hauses 397701
außerhalb 397652
Schla@@ 397575
erischen 397490
un 397431
Niveau 397248
üssen 397212
sische 397140
hängt 397105
Branche 397031
angeblich 396903
Kü@@ 396615
trägen 396497
Tages 396475
Innenstadt 396387
alisiert 396248
sa 396109
steller 395934
grenze 395776
fan@@ 395703
av@@ 395619
Investitionen 395376
Zweit@@ 395326
Sam@@ 395217
Produktion 395116
Motor@@ 394931
dra@@ 394855
dl 394620
ba 394569
Meister@@ 394566
Mainz 394536
pft 394432
siv 394411
psych@@ 394383
Verhältnis 394376
West 394374
historischen 394254
31. 394119
bürger@@ 394026
Zustand 393693
off 393657
plus 393629
Ham@@ 393624
verwaltung 393621
Westfalen 393596
stein@@ 393550
ohn@@ 393466
Los 393299
Jahrhundert 393261
ill@@ 393210
berichteten 393179
Bahnhof 392797
dler 392709
beginn 392563
fähig 392444
behandelt 392430
öff@@ 392387
Nah@@ 392277
größer 392205
Ernst 392204
Kader 392141
Wider@@ 392065
persönlich 392034
Arbeit@@ 392015
bis@@ 391937
Sat@@ 391856
Junge 391787
spolitik 391671
zuständig 391543
fürs 391496
Daher 391426
Weihnachten 391170
Rom 391169
Untersuchung 391157
vol@@ 391130
rufen 391015
Sturm 390985
Schne@@ 390887
vorbereitet 390831
pri@@ 390817
wesen 390750
far@@ 390750
2004 390714
Jähriger 390654
Jahrzehnten 390548
Eigentlich 390473
tie 390378
Feld 390375
Jens 390313
Modell 390293
Darüber 390261
wort 390233
Patrick 390216
kürzlich 390131
lichem 390100
glück@@ 390097
formen 390050
privaten 390045
29. 389892
ic 389849
ruf 389518
schläge 389509
Gü@@ 389278
Marco 389277
gesucht 389218
sträger 389187
Vorsprung 389149
Spiegel 389115
tur@@ 388999
spr@@ 388975
kirche 388940
Medi@@ 388933
Regen@@ 388888
mi 388593
Keller 388550
58 388452
acken 388302
no 388270
ki 388098
Fa@@ 388059
erhöht 387805
Mos@@ 387715
See 387663
rop@@ 387524
pres@@ 387184
bereiten 387177
Wahr@@ 387146
verbandes 386982
Münster 386955
vorgestellt 386954
Letz@@ 386887
Erdogan 386880
Cor@@ 386871
kan 386865
Off@@ 386737
ase 386718
haften 386695
diger 386152
Alltag 386032
viel@@ 385956
Krä@@ 385814
Ser@@ 385657
spann@@ 385571
Dorf 385530
Ansicht 385496
Widerstand 385192
angeb@@ 384975
verz@@ 384757
Gö@@ 384642
Einrichtung 384588
gelernt 384549
dringend 384463
Garten 384257
Wie@@ 384181
Son@@ 383968
zusätzliche 383957
Tobias 383667
85 383648
Klima@@ 383592
för@@ 383556
Verbraucher 383533
Viertel 383482
organisation 383345
zählen 383344
lobte 383326
ernst 383091
Vorbereitung 383013
brü@@ 382997
gestorben 382966
wenden 382945
Mand@@ 382929
zentrale 382885
Förderung 382713
The@@ 382612
gol@@ 382430
Anlass 382327
wärts 382157
Toten 382127
körper@@ 382122
wissen@@ 382009
derung 381952
Höhepunkt 381837
teren 381667
Letzte 381576
gründen 381499
sitz 381291
billi@@ 381238
tis 381059
erter 381015
erlaubt 380887
französische 380823
mut@@ 380788
go@@ 380742
eig@@ 380645
entstand 380615
Etwa 380501
glücklich 380204
Tex@@ 380142
Eltern@@ 380103
grund 379662
9.@@ 379650
Verfassungs@@ 379458
Reich@@ 379451
Bir@@ 379422
Geschichten 379334
stellungen 379329
Leverkusen 379289
Liter 379146
Süden 379092
medi@@ 379038
Alternative 379021
Aktien 379015
vorgesehen 378962
mäß@@ 378919
verändert 378858
Pokal 378846
Quartal 378826
Wachstum 378726
26@@ 378531
Open 378528
Baum@@ 378518
miss@@ 378491
Feld@@ 378430
Wissen 378263
ffer 378246
kräftig 378244
Abstimmung 378218
sichtlich 378172
Bü@@ 377928
Rat 377888
dar 377859
liege 377802
Gebiet 377798
offensichtlich 377724
blatt 377688
Konflikt 377651
zurückzu@@ 377535
arzt 377352
nig 377151
kungen 377135
pa@@ 377081
TuS 376871
klein@@ 376842
gemeldet 376824
Unsere 376824
tei@@ 376783
Dach 376779
schlech@@ 376767
üsse 376374
Ulrich 376320
Haushalt 376185
hu@@ 376041
Rest 375968
stat@@ 375944
bit@@ 375708
Forderungen 375693
möglichkeiten 375680
denkt 375540
form@@ 375446
appen 375375
Bewer@@ 375330
sal@@ 375305
Nachbarn 375301
entsprechende 375280
Brandenburg 375191
Beruf 375114
ück@@ 375051
Wahlen 375026
feu@@ 374930
gerät 374803
kirchen 374703
Klinik 374657
oll 374393
gewinnt 374370
ahr@@ 374341
bestimmt 374247
denke 374223
feier 374126
Inzwischen 373773
eng 373519
Asyl@@ 373477
wann 373465
türkischen 373455
Stro@@ 373452
dom@@ 373448
Anna 373365
Welche 373349
hü@@ 373221
ütz@@ 373195
Verdacht 373186
Pr@@ 373100
wählen 372975
zy@@ 372962
sho@@ 372937
verpflichtet 372904
Rosen@@ 372826
stattfinden 372707
Sinne 372676
weiten 372666
Tanz@@ 372648
Andrea 372499
iel 372489
ela 372426
gemäß 372359
frem@@ 372284
entsprechend 372202
Umsatz 372189
2020 372137
Nachwuchs 372103
räume 372060
kel@@ 371989
Pass@@ 371639
dacht 371544
Sozi@@ 371389
Himmel 371355
co@@ 371342
08 371183
kehr@@ 371154
Klei@@ 370850
tot 370813
Gol@@ 370802
grundsätzlich 370720
Beh@@ 370508
höhere 370490
weitgehend 370401
roten 370320
film 370230
Tradition 370212
km 370198
davor 370123
bro@@ 370085
Mark 369903
stimmt 369824
Rainer 369677
warnt 369655
ähr@@ 369635
klingt 369540
organisiert 369523
kraft@@ 369420
Lohn@@ 369401
liste 369397
hoff@@ 369300
Einschätzung 369279
Länder@@ 369215
Tel 369191
BMW 369186
bie@@ 369089
Gewinn@@ 369033
stau@@ 369006
wiesen 368979
Del@@ 368951
mm 368833
Auge 368813
gin 368559
Vettel 368333
fle@@ 368329
dene 368299
gerich@@ 368275
stetten 368231
Irak 368226
dau@@ 368192
Deutsch 368080
Termin 367982
Weiß 367960
Freundin 367936
Berufung 367901
besucht 367837
Einführung 367751
geöffnet 367742
59 367728
behin@@ 367654
Anlage 367649
Nie@@ 367604
küh@@ 367497
Hof 367222
Einwohner 367105
Million 367090
Rech@@ 367026
Niedersachsen 366942
zo@@ 366883
Flucht 366878
Gott 366805
Zustimmung 366772
versicherung 366725
250 366692
sigen 366597
felder 366589
ffe 366488
Pen@@ 366426
verbot 366382
wach@@ 366329
Ob@@ 366258
Lebens 366215
by@@ 366207
3.@@ 365995
Kosten@@ 365969
selber 365867
Kä@@ 365855
lerin 365835
Klassen@@ 365822
Behörde 365777
Gold@@ 365645
hundert 365332
Na@@ 364870
fühlt 364822
ckten 364815
tief@@ 364806
Wett@@ 364652
Kauf 364574
annten 364428
Fenster 364365
barkeit 364332
Stuttgarter 364186
Kun@@ 364167
serie 364165
leidet 364145
anlagen 364088
miteinander 363960
sprech@@ 363957
außen 363917
steuer@@ 363864
Schuss 363846
Herausforderung 363709
Fort@@ 363668
res 363655
riss 363649
jub@@ 363610
wert@@ 363509
bekannte 363473
ministeriums 363404
Net@@ 363383
England 363359
diskutiert 363312
ahl@@ 363288
Is@@ 363243
amerikanische 363207
wusste 363071
Grün 363016
Männern 362985
Turn@@ 362856
il 362709
Ke@@ 362571
haf@@ 362417
Temperaturen 362403
daraufhin 362199
spei@@ 362196
Bundeskanzlerin 362182
Anders 361889
Bundestrainer 361879
Tempo 361733
Glei@@ 361696
ossen 361613
Wür@@ 361561
Firmen@@ 361553
ehe 361501
verbin@@ 361446
leb@@ 361436
istische 361410
Post@@ 361131
Recht@@ 360746
halb 360739
fän@@ 360650
klären 360588
folge 360526
passieren 360518
hört 360509
Sim@@ 360481
Bit@@ 360436
stete 360286
Tonnen 360152
Pra@@ 360119
Air 360073
indi@@ 360037
Homepage 360021
komple@@ 359999
Augsburg 359986
stern 359830
hör@@ 359805
Party 359724
Felix 359710
Glas@@ 359627
Stars 359546
Beschäftigten 359467
spitze 359466
oo@@ 359431
wand 359304
Hir@@ 359290
leiden 359234
tö@@ 359217
glei@@ 359213
Werke 359187
stammt 359159
itz 358932
09 358928
Manuel 358895
Ursache 358862
Ph@@ 358735
lte 358694
assi@@ 358678
älter 358659
mitglied 358652
industrie 358649
gleiche 358630
Papier 358502
99 358418
geschaffen 358394
Europäische 358371
tischer 358324
strecke 358279
band 358237
Immerhin 358121
sat@@ 358095
geschickt 357999
zunehmend 357863
Gesundheit 357856
gerecht 357843
kle@@ 357828
bor@@ 357777
Meer 357632
wertung 357581
besonderen 357574
perfekt 357384
begleitet 357375
wes@@ 357347
Indi@@ 357335
Simon 357248
nern 357022
schnitt 356893
Kap@@ 356890
Rund@@ 356682
Flüchtlingen 356510
bezahlen 356462
trug 356456
fingen 356180
Leser 356168
sicherung 356119
Schiedsrichter 356032
wan@@ 355925
droh@@ 355904
ni 355834
Leben@@ 355555
führten 355547
gelöst 355507
gemeinde 355485
ater 355419
IV 355213
Finanzminister 355172
Sta@@ 355044
Wissenschaftler 354970
hung 354949
ähn@@ 354935
Alb@@ 354901
Interessen 354895
Schweden 354856
Nordrhein 354802
Nachricht 354693
dienst@@ 354684
Nationalmannschaft 354666
wasser@@ 354606
warnte 354602
orienti@@ 354562
Praxis 354553
Veranstalter 354518
din@@ 354495
alleine 354447
Sprach@@ 354440
Anschlag 354421
engen 354386
verantwor@@ 354320
Großen 354313
ßer 354256
Rhein 354070
barer 353999
Sä@@ 353975
räumen 353827
Wagner 353810
sichts@@ 353731
brau@@ 353614
id 353501
Stei@@ 353397
Wehr@@ 353346
Feier@@ 353280
esse 353161
Meine 353133
Trend 353072
Grundschule 352985
Macht@@ 352942
eingestellt 352918
120 352768
sprachen 352666
by 352665
lager 352625
schätzen 352480
näher 352476
leiterin 352458
Qualifikation 352361
werten 352267
wirtschaftlichen 352221
Met@@ 352139
ingt 352101
Premiere 352090
bezahlt 352076
Marcel 351957
Nu@@ 351922
Brief 351917
meier 351899
spräsident 351874
größeren 351814
heimischen 351787
Behandlung 351727
Eröffnung 351713
Hi@@ 351697
Hom@@ 351524
stie@@ 351506
befinden 351498
warf 351462
staaten 351459
sichern 351352
zte 351297
bö@@ 351165
froh 351091
Radi@@ 351079
8.@@ 350754
Innenminister 350737
empf@@ 350730
Lich@@ 350681
Umgebung 350670
heit@@ 350661
tin@@ 350587
Schil@@ 350249
ay 350123
Gesetz@@ 350016
eigener 350012
Amerikaner 349975
reiche 349828
sorgten 349828
ament 349686
prüfen 349621
Verhalten 349591
Lauf 349445
verän@@ 349325
pol@@ 349302
wa 349263
ärz@@ 349203
Bil@@ 349009
Spr@@ 348833
tenen 348757
gener 348717
läs@@ 348661
spät 348656
Regisseur 348492
fas@@ 348321
Touristen 348045
fal@@ 348012
Drogen@@ 348004
Führungs@@ 347929
rut@@ 347928
bewegen 347885
Fü@@ 347882
Quadratmeter 347881
Mitgliedern 347859
Telefon@@ 347799
äs@@ 347714
Schröder 347541
ze@@ 347386
Leit@@ 347374
Vorhaben 347367
wächst 347277
Verteidiger 347252
Wirkung 347216
Gl@@ 347202
Handy 347195
Sorge 347051
Friedens@@ 346951
mangel@@ 346947
› 346900
stür@@ 346893
Industrie 346858
wirtschaf@@ 346803
Wind 346803
Werder 346590
Il@@ 346425
Neuer 346294
Anwalt 346235
Anti 346167
Bundestags@@ 346164
liebe 346114
ester@@ 346045
ierung 345989
zahlt 345984
tage 345966
Demnach 345901
erinnern 345812
adi@@ 345621
mitteln 345612
west@@ 345590
Mittelpunkt 345512
ums@@ 345370
ager 345353
hil@@ 345309
offiziellen 345234
appe 345203
* 345199
werk@@ 345063
Regen 344993
bedingungen 344975
essen@@ 344900
Stell@@ 344895
tten@@ 344867
Paar 344755
Schrift@@ 344602
bestehen 344545
trieb 344429
700 344278
Werte 344262
Bonn 344184
Hände 344131
bo 344029
Fas@@ 343992
städ@@ 343866
verlangt 343818
verhalten 343714
griffen 343647
Kevin 343484
wohl@@ 343426
zeug 343402
mil@@ 343368
ah 343251
arbeitete 342854
Kamera 342661
Computer 342648
Gut@@ 342572
Traum 342490
Mitarbeitern 342415
fassen 342396
gri@@ 342374
Richard 342356
gegründet 342338
Red 342316
quote 342286
4.@@ 342131
IT 342103
rot@@ 342094
gender 342055
Zwischen 341978
Gefängnis 341926
Profis 341888
Trainings@@ 341882
kommun@@ 341798
Wa@@ 341757
20.@@ 341714
mäßig 341669
Refer@@ 341604
Otto 341597
atz 341515
Tan@@ 341474
Berg 341444
saß 341408
Gästen 341390
ausgeschlossen 341306
Einigung 341302
Freitagabend 341261
ftige 341249
ahn 341145
flug 341118
Ele@@ 341017
rats@@ 340852
50@@ 340830
Große 340826
Fron@@ 340675
gebeten 340658
Kop@@ 340615
konzern 340533
flu@@ 340409
Rücken 340365
mati@@ 340330
legten 340305
theit 340165
trag 340097
äm@@ 340093
freute 339823
7.@@ 339808
Hof@@ 339765
PS 339743
Betroffenen 339701
Lager 339671
Ter@@ 339535
Feh@@ 339461
ott@@ 339461
ologen 339345
Rücktritt 339277
Zuge 339165
Der@@ 339128
Republik 339086
Gegenteil 339064
Sanktionen 338992
retten 338919
gü@@ 338861
nische 338833
aufgestellt 338832
stehende 338722
mäch@@ 338703
Je 338615
Beteiligung 338599
spartner 338576
oss 338524
Pas@@ 338506
Grundlage 338503
team 338409
Imp@@ 338400
Schäden 338394
Fer@@ 338352
Verk@@ 338350
einiger 338296
fünften 338266
betroffenen 338252
Lesen 338251
erfahr@@ 338244
bundes@@ 338237
entin 338206
angel@@ 338186
Bäume 337976
arischen 337970
übernimmt 337945
Abend@@ 337814
vertre@@ 337749
Weg@@ 337744
Volk 337727
Schloss 337683
irgendwann 337649
bin@@ 337648
bal@@ 337620
berg@@ 337619
bot 337612
1,5 337552
Baum 337524
ink@@ 337475
App 337454
zul@@ 337418
Vorfeld 337403
ast 337365
2002 337308
Verantwortlichen 337275
Lam@@ 337213
Sig@@ 337146
Aussagen 337137
Herzen 337130
tät 337105
raten 337078
Büro 337035
trainer 337030
ir 337027
va 337000
ot 336895
flug@@ 336853
Auswirkungen 336839
Kie@@ 336837
erstes 336785
ih@@ 336755
Ordnung 336713
sie@@ 336631
ding 336615
Teilen 336550
Netz@@ 336547
Städte 336486
Löwen 336414
merkt 336366
sol@@ 336282
2001 336254
Wor@@ 336228
ungs 336204
vorstand 336157
sprü@@ 336116
rit@@ 336055
Schnitt 335924
trafen 335904
Rä@@ 335862
interessiert 335827
61 335810
Tür@@ 335787
Wunder 335738
Zentral@@ 335676
Investoren 335634
hier@@ 335581
Bos@@ 335544
linie 335342
Et@@ 335327
Hum@@ 335228
Neues 335134
stimmung 335121
Hertha 334978
Aktionen 334856
damaligen 334805
Industrie@@ 334787
präsentieren 334783
sicht@@ 334778
künst@@ 334764
Ost 334747
Viel 334605
ktion@@ 334580
Steuern 334276
feierte 334055
Regionen 334012
gent@@ 333962
Tal@@ 333860
ons@@ 333807
sparen 333800
Frieden 333794
pl@@ 333675
Tief@@ 333634
63 333611
projekt 333578
eigen@@ 333184
städter 333045
Smartphone 333012
festgestellt 332951
nä@@ 332888
ausschließlich 332873
Nutz@@ 332751
Spieltag 332713
kurzen 332699
Gewerkschaft 332695
fünf@@ 332650
Abwehr@@ 332521
Elf 332505
getr@@ 332487
Mil@@ 332482
raus 332461
Beziehungen 332247
Eisen@@ 332227
erläutert 332143
uss 332139
heim@@ 331838
Ve@@ 331746
Erinnerung 331726
tar@@ 331632
jahr@@ 331610
Test 331579
Schli@@ 331567
Lufthansa 331510
entsprechenden 331447
Unser 331428
Fo@@ 331270
Tausende 331223
Hartz 331134
beglei@@ 331087
ungspro@@ 331055
Nutzung 331048
kes 331009
Bote 330999
dürfe 330918
Sar@@ 330909
nahezu 330839
ü 330807
Statt 330783
Bade@@ 330754
Tak@@ 330474
Reaktion 330462
Ferien@@ 330438
bahn@@ 330338
eien 330321
ange 330310
bezeichnete 330208
kin@@ 330182
klassi@@ 330164
beraten 329979
Angesichts 329870
plätze 329843
Eich@@ 329840
Bücher 329721
Abgeordneten 329720
preise 329718
tiv 329702
Andere 329698
drängt 329608
Personal 329605
senden 329588
bestimmte 329492
spielten 329473
züge 329365
herum 329363
red 329331
baum 329294
Ern@@ 329224
verkaufen 329063
Geräte 329013
zung 329011
Brun@@ 328985
gere@@ 328929
strö@@ 328917
ag 328910
verboten 328900
teilten 328898
Hein@@ 328889
Rechte 328850
Zer@@ 328838
hä@@ 328757
64 328650
rer 328641
beträgt 328515
Anbieter 328500
geschehen 328479
iell 328312
Kritiker 328291
Parlament@@ 328287
€ 328216
verstärkt 328133
hinten 328083
Druckansicht 327891
gungs@@ 327856
tive 327817
verbessern 327796
Prot@@ 327795
Dom@@ 327750
Eng@@ 327741
rich 327711
Eber@@ 327698
chtet 327560
66 327468
macher 327372
Kindergarten 327367
reagiert 327272
schnell@@ 327246
hard 327115
bestimmten 326793
Schwe@@ 326713
getragen 326682
Tei@@ 326600
Spei@@ 326575
bers 326549
Spe@@ 326503
ände 326500
Dro@@ 326458
mmer@@ 326444
sterben 326278
Papst 326122
Miet@@ 326107
halt@@ 325940
positive 325937
digungen 325929
ES@@ 325866
freund@@ 325840
TC 325755
äter 325728
Bä@@ 325722
wechselt 325643
erfüllt 325558
aufmerksam 325542
Geschäfte 325514
agen@@ 325437
Kooperation 325423
bus 325411
star 325360
ath 325326
taus@@ 325232
ti 325188
kul@@ 325180
Anschließend 325163
sitz@@ 325026
gehandelt 324893
suche 324881
wehr 324750
amer 324741
zeige 324734
sag@@ 324730
hoffe 324727
Zi@@ 324699
Stau@@ 324637
alle@@ 324622
jo@@ 324327
Poli@@ 324313
Senioren 324243
Jungs 324139
deb@@ 324066
kosten@@ 324053
behörden 324052
solcher 324014
Boden@@ 324011
Verlust 323986
Prei@@ 323972
ano 323664
ausgezeichnet 323647
Laufe 323628
Änderung 323563
chi@@ 323558
ates 323521
Far@@ 323429
überra@@ 323428
Leu@@ 323406
Wet@@ 323387
ik 323324
Körper@@ 323179
erkran@@ 323174
71 323003
äußerte 322922
handel 322920
schönen 322918
Vorteil 322834
gut@@ 322813
smann 322513
ligisten 322469
Brücke 322408
ppt 322282
meter 322268
brachten 322263
sender 322242
6.@@ 322242
Mad@@ 322200
ele 322159
wahl@@ 322102
deutsch 321937
markt@@ 321647
Fraktions@@ 321641
welcher 321551
sbach 321550
Bek@@ 321537
Umsetzung 321527
irgend@@ 321525
von@@ 321471
Bundesrepublik 321462
annt 321415
informieren 321401
beziehungsweise 321318
Lkw 321291
Festival 321268
Bislang 321224
67 321152
gebäude 321149
karte 321100
Julia 321076
Gegensatz 321063
Aufstieg 321046
spä@@ 321004
voraussichtlich 320826
übt 320780
drückt 320686
kol@@ 320672
val@@ 320642
Bundestag@@ 320497
überrascht 320484
Ach@@ 320438
Tot@@ 320416
72 320365
sis 320262
regierung 320251
Rente 320234
Gleichzeitig 320142
ve@@ 320109
Mich@@ 320107
Norbert 320032
ücken 320005
bus@@ 319952
nord@@ 319907
Mess@@ 319902
vierte 319901
Text 319878
loh@@ 319858
steh@@ 319858
Geheim@@ 319842
Abstand 319829
verliert 319791
Professor 319777
fik@@ 319677
Prüf@@ 319638
At@@ 319627
unterschiedlichen 319606
entlang 319579
erhöhen 319365
Kle@@ 319293
hab@@ 319269
bru@@ 319203
Regierungschef 319199
Viel@@ 319192
fit 319170
Dirk 318934
wechseln 318834
derungen 318778
Zun@@ 318747
doppelt 318684
62 318655
garten 318630
Gal@@ 318570
flo@@ 318439
zü@@ 318393
Erfolgs@@ 318339
Schwarzwald 318268
ausreichend 318137
2003 318068
Veränderungen 318028
xen 318012
drän@@ 317989
Fle@@ 317980
gerte 317896
gehörte 317754
up 317740
sierten 317738
tags@@ 317580
Vorwurf 317553
Umfeld 317443
nah 317421
Tru@@ 317335
sige 317319
Back@@ 317250
lieb@@ 317142
Emp@@ 317140
sage 317003
zeugen 316994
Gau@@ 316928
Eis 316886
AZ 316883
ziel@@ 316699
sion@@ 316678
Einnahmen 316669
Zweiten 316641
Planung 316522
Zentimeter 316269
ause 316257
Respekt 316239
orin 316022
om 316014
mte 316012
Schnee 315901
FIFA 315702
fli@@ 315624
Studium 315526
schung 315491
Königs@@ 315407
Summe 315374
essi@@ 315365
stoßen 315310
Hilfs@@ 315292
Anwohner 315264
Barack 315224
gestartet 315158
Kron@@ 315092
Sto@@ 314904
stoffe 314796
zuerst 314782
Heinrich 314776
bewegung 314696
scheid 314592
ker@@ 314524
schil@@ 314344
Afrika 314328
tur 314163
gestanden 314149
kommission 313979
staat@@ 313899
arische 313785
Stich@@ 313766
nütz@@ 313638
Aufsichts@@ 313541
sser 313534
bedeut@@ 313529
Salzburg 313447
zahlung 313350
Wahrheit 313230
Gerichts@@ 313222
min 313087
bisherige 312974
staat 312925
verwies 312787
wirtschaftliche 312697
Mach@@ 312640
Sabine 312611
Bier@@ 312586
Ludwig 312427
Rü@@ 312408
vermeiden 312372
kasse 312322
Kanzler@@ 312257
Landgericht 312249
Mexiko 312205
spüren 312193
Schauspielerin 312164
Roten 312074
vieler 311919
sdorf 311915
Dür@@ 311844
freiheit 311717
ktions@@ 311619
kurz@@ 311492
liefern 311478
erfolg@@ 311365
Aktivitäten 311364
Roland 311359
Zeu@@ 311258
Vol@@ 311209
rein 311014
pu@@ 310999
% 310860
Krankheit 310829
ausgesprochen 310780
Reform 310756
besuchen 310719
Hund 310689
Abwehr 310534
stal@@ 310417
mmer 310256
erscheint 310060
Reb@@ 309871
Inten@@ 309862
verteilt 309798
schö@@ 309796
Neubau 309794
Spur 309775
Regel@@ 309744
klar@@ 309539
angenommen 309513
Proteste 309460
Live 309433
Aktien@@ 309362
verstanden 309341
.03.@@ 309292
langer 309109
Größe 309067
dig@@ 309040
Droh@@ 308994
UN@@ 308923
private 308914
splatz 308751
Schülern 308681
bürger 308677
furt 308675
vic 308627
kern 308589
ole 308570
Des@@ 308492
Schützen@@ 308448
shausen 308441
Kul@@ 308433
verbrei@@ 308429
Wach@@ 308170
versuchte 308034
.com 308029
Haft@@ 307914
digten 307851
punkten 307831
Grand 307823
schwei@@ 307625
gewi@@ 307537
Affäre 307452
ai 307410
use 307349
ey 307349
Hauses 307239
Bedarf 307227
Verständnis 307082
Cal@@ 307058
folgten 307000
gestalten 306867
Mehrere 306837
Zug@@ 306802
ologe 306783
gefahr 306759
Kassen@@ 306633
erreichte 306618
grünen 306553
zige 306459
Arbeitnehmer 306428
jeweiligen 306218
Spuren 306181
kü@@ 306176
Tran@@ 306162
fielen 306136
Posten 306120
Gemeinschafts@@ 306119
endete 306095
Freunden 306016
Vorgehen 305923
künftigen 305769
stab@@ 305725
sens 305662
Nationen 305560
5.@@ 305494
Weber 305473
zün@@ 305462
ater@@ 305452
za 305376
schaffte 305324
arbeitung 305177
Gem@@ 304929
Ga@@ 304911
erläuterte 304777
Konsequenzen 304741
baut 304709
ola 304681
nei@@ 304646
schla@@ 304646
Sendung 304585
Schwi@@ 304473
Tatort 304416
Kommunal@@ 304398
höchsten 304358
Pressekonferenz 304357
Bernhard 304313
person@@ 304302
sieger 304300
Ausgabe 304290
James 304160
brach 304146
Reh@@ 304104
hoben 304079
Haltung 304027
mas@@ 303987
wick@@ 303964
Abschied 303890
ÖVP 303871
Athen 303846
Manchester 303834
letz@@ 303801
fliegen 303792
Einrichtungen 303757
Es@@ 303697
big 303527
hoff 303525
späten 303447
Unterschied 303385
persönlichen 303221
Regierung@@ 303145
konstru@@ 303125
Seiten@@ 303101
Werbe@@ 303076
fern@@ 302935
sberg 302889
deswegen 302700
Meisterschaft 302675
terung 302661
not@@ 302643
ßer@@ 302623
Fla@@ 302531
stücke 302452
brand@@ 302425
Landtag 302274
funktion@@ 302272
stätten 302256
italienischen 302192
zeich@@ 302192
tn@@ 302166
Filme 302156
Sc@@ 302154
Projekt@@ 302131
Aut@@ 302046
Liefer@@ 302020
ausgesetzt 301991
Bab@@ 301939
schar@@ 301935
lädt 301844
Block@@ 301838
Get@@ 301611
schwe@@ 301591
Ecke 301315
gesichert 301311
sky 301270
entschied 301254
Stephan 301240
orts 301190
Kapital@@ 301153
bi 301139
mierte 301054
voran 301051
gler 300972
Ras@@ 300831
belegt 300761
womöglich 300758
Abgeordnete 300752
woche 300742
ttern 300708
kenn@@ 300657
Unternehmens 300551
Werbung 300278
Internationalen 300266
Becker 300233
Bio@@ 300211
sur 300179
demokra@@ 300173
ce@@ 300164
Phase 299940
Wilhelm 299773
Dör@@ 299639
Schlä@@ 299619
kommende 299549
erzielt 299518
Schwan@@ 299504
Bot@@ 299487
Volker 299412
Autobahn 299292
Train@@ 299264
pra@@ 299254
soli@@ 299241
mä@@ 299170
Partien 299042
29@@ 299042
Klage 299006
umgesetzt 298962
verabschiedet 298962
por@@ 298861
gkeit 298843
losigkeit 298837
staatlichen 298738
Revolution 298672
einsatz 298645
zelt 298608
hn 298606
kleines 298380
Wort@@ 298372
Forschungs@@ 298278
Dauer@@ 298272
Hamilton 298266
Lok@@ 298215
ruft 298192
Gesell@@ 298160
Aufklärung 298090
ausgerechnet 298069
leben@@ 298024
international 298000
Kaffee 297982
Heimspiel 297955
endgültig 297953
letzter 297841
maßen 297776
zunehmen 297752
Kräfte 297743
schein@@ 297559
freunde 297542
All 297539
Bürgern 297504
Uni 297474
einig 297262
pause 297258
schwerer 297254
drin 297204
neh@@ 297144
bü@@ 297119
hinzu@@ 297086
hielten 297023
Marc 296979
wü@@ 296912
Schreiben 296883
Experte 296746
kurze 296728
näh@@ 296668
Schie@@ 296634
geändert 296611
Beschluss 296607
Lukas 296580
Manche 296534
türkische 296523
ry 296291
kop@@ 296241
Rock 296209
prakti@@ 296194
Julian 296162
Maschine 296155
Hier@@ 296155
wäh@@ 296152
gas 296086
dün@@ 296082
Mut 296072
Nachrichten@@ 296060
Fritz 296036
änder 295919
07 295852
Tim 295760
Billi@@ 295733
ley 295632
Ruf 295629
Erwartungen 295619
Neu 295615
schm@@ 295552
schaff@@ 295492
ws 295424
Fil@@ 295405
Bundestagswahl 295344
Wies@@ 295179
eres 295140
Mieter 295139
Angeklagte 295084
krise 295067
gelaufen 294974
Generalsekretär 294952
krie@@ 294894
sinn@@ 294873
gie 294708
wege 294682
antreten 294622
dere 294594
zimmer 294591
intensi@@ 294591
Hinweis 294544
Fläche 294473
stunde 294467
live 294466
dicht 294431
Song 294376
Rottweil 294364
Bauer 294319
gebildet 294248
Viertel@@ 294229
Ide@@ 294180
achtet 294041
Holz 293854
77 293777
Offen@@ 293756
dlicher 293706
profitieren 293661
einzelne 293558
brei@@ 293553
Ehe 293528
On@@ 293488
welchen 293436
mungen 293435
App@@ 293412
Fokus 293410
07@@ 293242
.at 293227
Zugleich 293110
gan 293047
mende 292952
Erfolge 292914
test 292904
Integration 292740
äußerst 292724
möchten 292553
ros@@ 292280
Ton@@ 292226
brand 292131
trieben 292063
hervor@@ 292018
kräften 291983
itäts@@ 291890
Küche 291813
Atmosphäre 291732
Kla@@ 291717
Justiz 291714
Os@@ 291712
atten@@ 291680
angen 291649
5000 291642
une 291618
teuer 291582
streit 291494
gelände 291459
Angeklagten 291452
gend@@ 291349
dienste 291325
drücken 291262
ergeben 291117
Kilometern 291107
chern 291052
Ausgaben 291033
leh@@ 290994
mö@@ 290899
tiv@@ 290859
ere@@ 290773
schätz@@ 290681
Erz@@ 290643
68 290578
Kino 290550
seln 290545
Stör@@ 290541
zier@@ 290517
männ@@ 290512
vertreter 290503
Besitzer 290408
Wettbewer@@ 290372
Dau@@ 290347
Bündnis 290319
Strategie 290306
Prüfung 290237
onie 290182
ktor 290137
Amp@@ 290098
gescheitert 289953
Dritt@@ 289940
Protest 289842
attra@@ 289785
fehlte 289768
spanischen 289699
ellen@@ 289687
Verbot 289514
lag@@ 289490
Gymnasium 289364
erstellt 289360
sierte 289307
nden 289273
schwarzen 289229
Autom@@ 289172
Schäuble 289162
schicken 289077
regel@@ 289057
betrieb@@ 289025
grenzen 289000
dru@@ 288942
Tote 288875
nu@@ 288866
78 288842
berech@@ 288769
Für@@ 288760
lli@@ 288739
Staatsan@@ 288735
1990 288699
Schulden 288612
Bier 288591
süd@@ 288477
Co. 288422
ländern 288404
lü@@ 288322
ment 288313
Potsdam 288252
Anklage 288219
meldete 288212
karten 288197
kunden 288170
Schwester 287983
schein 287956
schlossen 287864
gerissen 287844
scheinen 287826
samt 287791
eigenes 287766
atoren 287639
halben 287614
Linkspartei 287564
kauf@@ 287554
vorgeworfen 287504
Fried@@ 287360
Finanzierung 287345
Beziehung 287320
Stimm@@ 287317
rücken 287315
nischen 287310
Wich@@ 287309
ý@@ 287301
bach@@ 287283
.04.@@ 287151
Ret@@ 287122
höchste 287051
Kün@@ 287032
erinnerte 287029
bestand 287025
museum 287009
aufgebaut 286946
verhindert 286913
bundesweit 286853
schnei@@ 286835
Vö@@ 286687
.-@@ 286636
Tier 286581
ät 286452
Kern 286385
weißen 286380
00@@ 286354
ER@@ 286286
din 286246
ahnen 286194
staatliche 286181
Premier 286181
situation 286146
beobachtet 286117
Spa@@ 286042
Realität 285913
übernahm 285819
ursprünglich 285741
vorsitzender 285689
jener 285642
Sven 285631
Begegnung 285618
besetzt 285610
fun@@ 285566
Tatsächlich 285557
spie@@ 285488
sicherlich 285445
vorn 285422
ord 285387
rote 285383
Protest@@ 285383
gig 285363
tzu@@ 285337
Wert@@ 285294
ile 285245
Beteiligten 285162
finanzielle 285142
reu@@ 285074
Gemeinschaft 285021
Cent 285011
früh@@ 284995
Saal 284964
schätzt 284947
ßig 284929
kts 284867
Gemeinder@@ 284863
Jury 284759
zweifel@@ 284608
hie@@ 284604
ym@@ 284576
Viertelfinale 284534
Gang 284514
Nord 284369
gerung 284255
höheren 284250
3000 284239
gigen 284209
EN 284172
gige 284103
geschri@@ 284073
Migranten 284041
förderung 283997
ative 283986
untersucht 283874
Bern@@ 283832
einzigen 283826
bten 283813
neben@@ 283678
ly 283654
Information 283625
Günter 283524
ost@@ 283452
Opel 283397
si 283373
Netzwerk 283292
investiert 283285
69 283230
bv@@ 283183
Führ@@ 283129
vergeben 283111
nationalen 283093
Pro 283081
Telekom 282975
arbeiter 282882
Sky 282868
Versorgung 282838
Samstagabend 282696
Kaiser 282644
Dadurch 282629
CH@@ 282552
bereitet 282471
schriften 282470
Pfle@@ 282464
gebnis 282453
Zimmer 282447
Zwi@@ 282373
zone 282298
amtes 282271
forschung 282233
Kim 282166
kündigt 282108
halbe 282097
österreichischen 282049
Spenden 281983
stati@@ 281980
fragte 281815
Ran@@ 281811
ank@@ 281774
Autoren 281669
Infrastruktur 281632
Krie@@ 281589
Seel@@ 281578
richtung 281573
ame 281526
Pflege 281518
tern@@ 281501
derer 281401
kümmern 281308
gestaltet 281285
saison 281222
praktisch 281216
Begriff 281196
verfolgt 281181
gener@@ 281045
Lim@@ 281043
.05.@@ 280994
benen 280991
für@@ 280962
schien 280922
Ausbildungs@@ 280850
kritisch 280820
Wag@@ 280820
Thüringen 280692
Abschie@@ 280613
ri 280501
Pflicht 280474
.01.@@ 280355
technischen 280324
Nik@@ 280292
SPÖ 280288
Proz@@ 280280
Zeitraum 280163
Fro@@ 280156
reagieren 280090
Politik@@ 280081
Ara@@ 280045
ermöglichen 280029
Meyer 279963
Benz@@ 279945
ologischen 279913
ologische 279881
Lange 279877
li 279843
chinesischen 279813
Regelung 279780
unmittelbar 279753
Überraschung 279741
Gesprächen 279722
preis@@ 279676
Samstag@@ 279644
Theater@@ 279475
Messe 279409
Dauer 279323
Vize 279309
Alkohol 279231
Kleine 279174
änge 279129
Rande 279115
Will@@ 279060
sprung 279020
weib@@ 279017
leichter 278986
Gemeinsam 278980
Vorfall 278966
Zivil@@ 278890
erie 278834
hinein 278796
Software 278783
freilich 278746
manchen 278745
führungen 278719
kehrt 278694
dopp@@ 278689
lin 278635
Landtags@@ 278562
direktor 278551
les@@ 278497
Herbert 278473
Mannes 278412
gro@@ 278404
genießen 278359
Montagabend 278201
fraktion 278184
Konkurrenten 278138
Wall@@ 278124
yp@@ 278024
persönliche 277996
handeln 277987
Terror 277650
Börsen@@ 277586
besseren 277568
Reda@@ 277550
Rest@@ 277488
zerstört 277435
deck@@ 277368
asp@@ 277331
bild@@ 277208
sign@@ 277200
künftige 277186
echte 277150
folgenden 277150
thei@@ 277132
Umwelt 277112
sin@@ 277056
Angreifer 277030
Rekord 277016
inner@@ 277010
Stattdessen 277003
Einzug 276958
keiten 276844
Sprung 276832
RTL 276809
Hoh@@ 276545
Willen 276282
rang 276263
bst@@ 276203
frau 276181
Infos 276103
entsteht 275987
Vers@@ 275984
Ungarn 275910
Psych@@ 275904
gre@@ 275871
Sonntag@@ 275850
abgelehnt 275733
Jobs 275727
Straß@@ 275663
Australien 275612
Bauern@@ 275591
Stadtrat 275567
Entwurf 275457
Gewinner 275451
wünschen 275400
Skandal 275362
Klub 275319
gelingt 275111
Indien 275068
ls@@ 274981
Olympischen 274768
dire@@ 274719
lach 274687
Abkommen 274643
leg@@ 274603
hre 274585
Zinsen 274578
sz@@ 274569
vieles 274499
Konzern@@ 274450
Narren@@ 274377
ats@@ 274312
fak@@ 274224
bewer@@ 274215
Falle 274133
Torhüter 274130
Jahrhunderts 274128
klu@@ 274070
Eigent@@ 273979
gele@@ 273939
ältere 273915
Aufmerksamkeit 273865
Chor@@ 273862
Mio. 273860
bewegt 273804
Müh@@ 273788
Lust 273784
Villingen 273777
flächen 273720
Karlsruhe 273678
Bag@@ 273631
Direktor 273502
sinn 273467
nerin 273441
Gremium 273326
Strafe 273315
terer 273297
Anzeiger 273297
fügte 273296
leich@@ 273281
gering@@ 273203
Audi 273169
sicherheit 273097
stanz 273049
enthalten 273023
sw@@ 272941
Torwart 272906
staats@@ 272863
Einheit 272842
heben 272679
our 272595
gau 272581
Organ@@ 272481
Schiff@@ 272468
gefasst 272452
Gor@@ 272428
Mord 272390
Chor 272371
chor 272317
tat 272306
Oberbürgermeister 272204
üben 272179
Näch@@ 272115
rät 272114
tene 272084
rad 271919
grüne 271907
Juden 271879
uri@@ 271784
Chefin 271763
Ausschuss 271747
enheit 271726
veranstaltung 271704
Fan 271659
Händler 271571
ans@@ 271558
wid@@ 271548
Spielern 271525
‹ 271503
ielle 271454
Dienstagabend 271443
teste 271430
.02.@@ 271395
reform 271381
Deutscher 271356
Eintritt 271337
stück@@ 271306
erzählen 271278
Kredit@@ 271269
leer 271260
Büch@@ 271243
Pokal@@ 271178
Beglei@@ 271139
altet 271130
geleitet 271125
San 271065
Händen 271064
Handball 270901
eindeutig 270886
Blas@@ 270861
smus 270697
Salz@@ 270651
sicherte 270616
dy 270325
Zähler 270274
Denk@@ 270150
Platz@@ 270065
teu@@ 270040
verwendet 269981
dri@@ 269953
ous@@ 269823
wendet 269813
stin 269811
Meh@@ 269784
Beamte 269720
bronn 269703
Eli@@ 269602
sau 269598
Amazon 269532
hn@@ 269527
ständige 269522
zeichnen 269517
Pflicht@@ 269381
dran 269338
kir@@ 269254
Zehn 269252
Übernahme 269205
Ann@@ 269133
Besuchern 269129
Kriminal@@ 269105
Quar@@ 269104
Günther 269095
ahl 269085
Wichtig 269067
rats 268938
wesentlich 268884
schwäch@@ 268783
Blei@@ 268720
Hochschule 268665
sende 268662
Räume 268637
01 268629
knü@@ 268606
ollen 268514
Vogel@@ 268514
Licht@@ 268499
treiben 268477
Arbeitsplätze 268445
Ehefrau 268369
Mittwochabend 268311
wechselte 268301
verkehrs@@ 268293
Großteil 268255
schaut 268194
Verlängerung 268185
unterschiedliche 268162
verpflich@@ 268097
Kit@@ 268089
Material 268063
viertel 268017
pädago@@ 268012
.06.@@ 268005
Moder@@ 268004
ille 267996
Ersatz@@ 267975
Weiß@@ 267856
Co 267818
Lied 267793
typ@@ 267783
aufnahme 267693
Aufsteiger 267605
dem@@ 267603
weit@@ 267481
gnis 267444
Steuer 267436
greift 267424
Sex 267413
Sportler 267373
firma 267367
sammeln 267358
Angel@@ 267328
Rel@@ 267325
Unternehmens@@ 267262
schlüsse 267252
Val@@ 267245
Tourismus 267215
Kolle@@ 267208
Landrat 267104
steten 267103
fa 267077
alismus 267071
rückt 267028
spiegel 267025
leihen 267019
Stein 266973
äußern 266922
pfel 266900
Schritte 266873
Industri@@ 266781
aktion 266758
deckt 266742
kapelle 266736
vergan@@ 266655
spätestens 266626
Ebene 266617
erfolgt 266568
Schuld 266503
Schwarz@@ 266461
Sin@@ 266438
Blo@@ 266429
gerungen 266416
Sozialdemokraten 266325
Riesen@@ 266299
Regi@@ 266203
verl@@ 266146
besie@@ 266107
Schütz@@ 266051
block@@ 266005
News 265935
Burg@@ 265805
Don@@ 265732
Bie@@ 265675
demokratischen 265637
tlicher 265619
iger@@ 265568
bot@@ 265544
Musi@@ 265461
Ägypten 265411
Schleswig 265392
kammer 265352
Senat 265334
De 265289
suchten 265195
dienstes 265101
erfüllen 265032
erhielten 265017
anne 264943
schaden 264888
samm@@ 264818
.09.@@ 264797
eingesch@@ 264785
81 264705
Informations@@ 264701
Glück@@ 264695
Immobilien@@ 264620
gangen 264554
Anleger 264435
versi@@ 264400
fördern 264380
dachte 264347
selbstverständlich 264326
Magazin 264294
ero@@ 264212
Jahr@@ 264183
Bom@@ 264173
benötigt 264152
ars 264122
verdienen 264101
buch@@ 264041
spartei 264005
Leuten 263984
verspricht 263968
gestal@@ 263966
Steinmeier 263938
acht@@ 263868
bilder 263866
Fahrbahn 263845
reicher 263795
höh@@ 263716
qualifi@@ 263711
Barbara 263659
74 263567
Angeles 263560
deutschland 263502
ella 263471
massiv 263441
Claudia 263393
kämpft 263316
dens 263301
konferenz 263244
juri@@ 263182
uni@@ 263161
stellvertretende 263132
Anstieg 263105
kollegen 263073
leiten 262993
Neuen 262929
hren@@ 262927
Angehörigen 262921
Version 262882
aum 262818
Assi@@ 262806
Gute 262788
frü@@ 262750
hl@@ 262730
II. 262695
büro 262694
Album 262570
Börse 262562
konzept 262524
entspricht 262428
Job@@ 262399
malige 262379
nahme@@ 262349
Arbeiter@@ 262322
leger 262312
dreht 262292
geboten 262213
Vorschläge 262188
Publik@@ 262158
graben 262155
beschreibt 262155
AP 262121
terten 262077
Aussicht 262046
Anzahl 262005
Schwä@@ 262000
fällig 261943
Schre@@ 261934
Den@@ 261889
Times 261886
Stil 261755
.07.@@ 261743
Davon 261729
Com@@ 261712
zweit@@ 261641
Stärke 261629
atorin 261594
Tom@@ 261456
Staffel 261442
ucht 261348
Ol@@ 261328
Schü@@ 261327
stammen 261224
Klassen 261222
73 261200
nacht 261140
anischer 261135
angebot 261120
vater 261118
Kita 261112
steiger 261084
ewi@@ 261038
dient 260961
nehmer 260930
Kiel 260878
omen 260853
Super 260812
startete 260789
bayerischen 260762
Ant@@ 260717
ktiv 260688
angekommen 260643
vielfäl@@ 260563
Peking 260445
landete 260410
General 260393
Verteidigungs@@ 260270
beteiligen 260200
unterstütz@@ 260170
Zit@@ 260145
Prinz 260137
assen@@ 260096
sache 260094
Verbrechen 260082
tsch 260068
ode 260061
Vertrags@@ 260031
Steffen 259895
tritts@@ 259862
erkannt 259825
otte 259815
abgel@@ 259687
entscheidenden 259675
familien@@ 259621
leistungs@@ 259602
efs 259594
merk@@ 259566
zz@@ 259548
Amtszeit 259544
Lob@@ 259482
Weißen 259468
etabli@@ 259359
shaus 259356
vorbei@@ 259284
modell 259236
spa@@ 259215
Mann@@ 259181
ya 259179
Diesel 259175
olen 258990
zumal 258936
Zoll@@ 258936
AL@@ 258929
ßen@@ 258912
Ingenie@@ 258851
maschine 258848
Fan@@ 258754
Sieg@@ 258753
posi@@ 258713
Kau@@ 258692
Schäfer 258609
Untersuchungen 258557
Reihen 258538
Verletzung 258518
Unternehmer 258498
linke 258448
brauche 258444
konzert 258422
agentur 258356
rt@@ 258348
beschädigt 258332
que 258312
Mili@@ 258293
Kos@@ 258250
klein 258066
drehen 258007
ssen 257984
verletzte 257950
fuhren 257907
21.@@ 257899
dieren 257875
Jean 257838
wertet 257834
schwi@@ 257831
gewinn 257817
thilfe 257816
breite 257812
phase 257811
Stand@@ 257781
Antworten 257723
Weltcup 257703
Tageb@@ 257612
willi@@ 257591
grafie 257486
menden 257482
manns 257469
ots 257447
zeichnete 257425
Medienberichten 257425
maximal 257344
bricht 257277
profession@@ 257254
ins@@ 257240
fes@@ 257168
händler 257119
ausgelöst 257103
sagten 257064
Klein 257056
intensiv 257041
Mindest@@ 256995
Wiesbaden 256956
Jahre@@ 256949
Darin 256851
06 256843
verhandlungen 256839
Hoeneß 256737
sahen 256721
allzu 256692
richtet 256635
rt 256624
syrischen 256577
blo@@ 256538
Sperr@@ 256528
98 256494
ruhig 256486
Gener@@ 256431
dich 256415
Sieben 256385
Höchst@@ 256322
zel 256280
André 256205
Blü@@ 256200
vo 256164
proble@@ 256156
Schiff 256103
Schwein@@ 256060
Gerät 255936
Jahrzehnte 255842
kreisen 255748
gab@@ 255652
ST@@ 255549
Schar@@ 255430
holz 255339
spezi@@ 255327
dä@@ 255299
waffen 255229
Deut@@ 255142
Beruf@@ 255142
klaren 255110
Nato 255097
chter@@ 255097
Schmid 255083
lehr@@ 255057
exist@@ 255035
Einkommen 255018
Kenn@@ 254960
Prinzip 254959
anteil 254903
Bereichen 254880
erzählte 254879
Begründung 254803
Kanada 254768
schlechte 254741
wünscht 254560
els@@ 254548
tru@@ 254496
wichtigste 254467
Stadtverwaltung 254386
Gewerkschaften 254318
rechtlichen 254316
Nordkorea 254252
mlich 254245
absolut 254177
forderten 254118
sicherer 254069
finanziert 254057
strä@@ 254053
igkeiten 254004
Det@@ 253947
ordentlich 253903
reis 253887
deln 253883
Mus@@ 253874
modernen 253804
bischen 253785
sigkeit 253759
eingerichtet 253725
freue 253697
Kandidat 253684
jo 253681
Rechnung 253680
reiben 253662
Sechs 253556
emen 253539
Rab@@ 253489
Stellungnahme 253473
hoher 253471
spe@@ 253467
Behin@@ 253383
Blut 253352
betrifft 253342
Klu@@ 253190
unabhängig 253185
bungen 253162
geord@@ 253131
utz 253126
Gelb 253057
Auseinandersetzung 253016
Bli@@ 253012
finanziellen 252988
Clubs 252938
Rio 252880
Konz@@ 252796
ichten 252766
tterte 252734
Stock@@ 252726
Risiken 252700
Zul@@ 252678
Service 252607
wander@@ 252587
La 252535
Sängerin 252522
Schä@@ 252465
Aufgrund 252432
glich@@ 252417
Hon@@ 252401
zitiert 252289
betreut 252277
wetter 252250
zerstör@@ 252191
sinnvoll 252129
teure 252079
hob 252031
gerei@@ 252025
Saudi 252008
Istanbul 252007
theater 251965
Dam@@ 251951
hebung 251854
Links@@ 251707
euer 251694
musi@@ 251693
Not 251675
off@@ 251661
ühr@@ 251638
gebe@@ 251534
onisten 251514
werks 251421
Grö@@ 251377
Eigentümer 251318
Aufnahme 251314
Guardiola 251262
burgs 251258
gas@@ 251219
lebten 251177
Steu@@ 251148
blicken 251138
Tatsache 251125
pi@@ 251115
tür@@ 251088
bauten 251076
Schicksal 250968
Stern@@ 250906
bedroht 250889
enberg 250884
Mie@@ 250820
tolle 250818
ala 250810
lasse 250795
Entwicklungs@@ 250728
Vorbild 250688
Sou@@ 250685
rasch 250657
Kiew 250620
.08.@@ 250606
gesetz@@ 250602
Abteilung 250555
mals 250503
gekauft 250428
Hann@@ 250392
Signal 250381
mag@@ 250355
Verbands@@ 250313
eil 250302
mers 250283
rechtzeitig 250233
trags@@ 250199
ther@@ 250188
kurzfristig 250180
wenigstens 250165
Ten@@ 250120
enttäuscht 250109
geprägt 250013
Leiterin 249960
alar@@ 249934
baller 249904
griechischen 249893
inklusive 249885
igte 249857
betr@@ 249751
pla@@ 249736
Pflanzen 249696
See@@ 249672
Darauf 249657
Mitglieder@@ 249635
Comeback 249538
durften 249521
schütz@@ 249510
Truppe 249506
Mc@@ 249503
Rote 249490
aten@@ 249489
Mä@@ 249485
Gewerbe@@ 249373
Warn@@ 249354
ves 249327
Schwenningen 249242
Kommand@@ 249178
pfiff 249157
Wird 249132
fter 249106
itä@@ 249105
quasi 249086
Holstein 249081
utter 249072
Hunderte 249070
NSA 249061
aben 248984
Pir@@ 248959
rechtlich 248806
lösung 248798
Banken@@ 248798
inne 248755
Lebensmittel@@ 248740
steuern 248669
Lab@@ 248655
leute 248491
å@@ 248454
orie 248443
wacht 248411
rate 248408
dien 248391
Hoffenheim 248390
Donnerstagabend 248339
leitet 248334
erheblich 248322
Erzäh@@ 248310
Bür@@ 248297
Auff@@ 248246
same 248236
Zentralbank 248235
ONLINE 248197
fonds 248137
gerichts 248090
Spitz@@ 248056
mieren 248035
geklärt 248005
üt@@ 247965
Genau 247948
23@@ 247835
wanderung 247827
Auswärts@@ 247824
Gründung 247822
netz 247822
bund 247771
Problemen 247755
hierzulande 247694
linien 247681
Variante 247644
let@@ 247510
heuer 247499
Schal@@ 247490
ativ@@ 247460
uter 247451
ktive 247443
stadt@@ 247430
fel 247429
Hotel@@ 247332
Weltkrieg 247263
kämp@@ 247243
öffnen 247232
Arbeiter 247229
nachzu@@ 247174
76 247122
met 247064
Toren 247055
weichen 247049
Maßnahme 247022
springen 246979
zuneh@@ 246974
bekannter 246876
Deb@@ 246829
Tom 246799
ehen 246744
wag@@ 246740
Gör@@ 246734
äuß@@ 246653
historische 246596
Betreuung 246339
absol@@ 246313
durchgeführt 246307
iste 246306
Bis@@ 246305
versuchten 246274
Olympi@@ 246256
Stö@@ 246232
Positionen 246217
politischer 246201
gefühl 246154
Passagiere 246151
dest@@ 246096
kunde 246092
Meinungs@@ 246071
reichte 246058
Darmstadt 246053
übertragen 245967
Betreiber 245957
häufiger 245934
wahlen 245922
Anerkennung 245906
Kro@@ 245868
Verfassung 245861
sse 245837
beobachten 245786
Erwachsene 245746
Mittlerweile 245711
zierung 245647
ee 245625
Plak@@ 245598
genannten 245564
aufnehmen 245452
gefährdet 245444
genügend 245400
geliefert 245377
Kam@@ 245356
utt@@ 245261
beteiligung 245258
Schüler@@ 245247
erfolgreichen 245228
ret@@ 245211
Offensive 245173
Sitz 245173
Kreuz 245115
Hoff@@ 245094
technische 245075
Mir@@ 245047
Böh@@ 245038
Parkplatz 244851
Fru@@ 244819
Regensburg 244803
sung 244779
entweder 244704
ständen 244629
drauf 244624
Ausdruck 244616
älteren 244554
Gedenk@@ 244541
inge 244454
Millionen@@ 244426
ents 244421
reib@@ 244378
hunder@@ 244372
Freien 244369
Gas 244321
kore@@ 244294
Mord@@ 244290
ffs 244177
ol 244156
beenden 244140
che@@ 244125
gewicht 244120
Maß@@ 244016
Landesregierung 244015
Hab@@ 244012
lass 243954
blä@@ 243941
pak@@ 243931
xi@@ 243874
Benjamin 243864
Voraussetzungen 243829
gestaltung 243825
Truppen 243781
wöch@@ 243781
Pfer@@ 243777
Montag@@ 243676
aufgerufen 243675
Vil@@ 243579
Duo 243550
bün@@ 243515
ital@@ 243466
starben 243461
Johann 243461
junger 243437
aden@@ 243429
gesammelt 243421
schwä@@ 243376
licherweise 243375
sur@@ 243359
Später 243356
urs 243350
einstimmig 243305
mmen 243289
irgendwie 243281
Harald 243143
jüngst 243125
argum@@ 243105
Katastrophe 243094
draußen 243042
spek@@ 243012
Küh@@ 243008
Sonntagabend 242997
bre@@ 242982
ners 242909
Assad 242893
Brief@@ 242881
Plattform 242727
Vorgänger 242700
drohen 242694
Keeper 242685
hinweg 242681
atte 242653
Wladimir 242604
Bezug 242596
Ministerium 242559
zeitung 242550
vollständig 242549
Kilogramm 242517
Funk@@ 242511
beschäf@@ 242502
dierte 242339
vention 242333
Milli@@ 242320
dankte 242316
Pul@@ 242207
liber@@ 242123
Station 242092
.0@@ 242051
schlä@@ 242005
gewachsen 241993
Kontin@@ 241980
haupt 241979
entscheidet 241958
Dagegen 241955
klagte 241883
geriet 241853
Ärger 241836
schlägen 241834
enge 241814
gangs 241777
zeug@@ 241769
statt@@ 241743
Rath@@ 241735
Wann 241697
Reisen 241545
Forschung 241528
United 241506
Franzosen 241490
nn@@ 241440
vielmehr 241437
Zwe@@ 241418
Mönchengladbach 241403
George 241402
aku@@ 241344
Bul@@ 241334
Chi@@ 241307
gesetzlichen 241301
enswert 241274
maier 241273
ara 241270
ai@@ 241256
Wen@@ 241224
geprüft 241202
Büro@@ 241124
großem 240998
ampf 240950
Spielzeit 240945
1999 240923
Stadtteil 240919
Mur@@ 240886
Funktion 240830
Piloten 240787
rh@@ 240742
außer@@ 240669
schaf@@ 240662
Hollywood 240633
stens 240550
neuer@@ 240519
Verlauf 240454
lan 240396
Besch@@ 240332
18.@@ 240316
ani 240312
marsch 240312
lebte 240202
verpasst 240183
Lieb@@ 240091
strah@@ 240087
skon@@ 239973
schlechter 239958
Heu@@ 239934
scheiterte 239842
tho@@ 239829
geschä@@ 239806
Umbau 239742
gerichtet 239729
gebraucht 239633
bitte 239544
schwarze 239539
Ale@@ 239519
qui@@ 239505
egten 239474
Blatt 239412
twi@@ 239396
Bezirk 239367
Fran@@ 239345
Hem@@ 239335
Frieden@@ 239258
teilnehmen 239203
halb@@ 239200
Flugzeug 239179
Tipps 239105
fließen 239050
Hinzu 239023
stärken 239018
B. 238985
vertrau@@ 238972
fertigt 238949
befand 238924
Angriffe 238912
partner 238886
blu@@ 238837
86 238834
po 238753
regelmäß@@ 238746
Tank@@ 238720
Unten 238697
Rock@@ 238607
dienen 238567
umzu@@ 238496
Analyse 238438
besitzer 238404
verbands 238340
bewe@@ 238279
stam@@ 238278
verwal@@ 238205
lück@@ 238196
stro@@ 238136
Fahn@@ 238047
Anhalt 238033
schnelle 238026
Rolf 238003
Sieger@@ 237982
IS@@ 237952
ammer 237937
stands 237912
bom@@ 237859
kampf@@ 237793
offizielle 237740
Sl@@ 237706
Organis@@ 237679
Landwirtschaft 237655
wonach 237588
vergangene 237537
Marx 237525
Überrasch@@ 237434
Zw@@ 237389
Gie@@ 237345
visi@@ 237300
Feu@@ 237298
angs@@ 237213
Figur 237190
Zusatz@@ 237166
räumte 237032
,@@ 237019
Geschle@@ 237002
fahrten 236932
ller 236909
verlängert 236872
83 236814
anbieten 236812
Lokal@@ 236784
Kürz@@ 236756
02 236691
Sachschaden 236690
Handel@@ 236641
gewohnt 236619
Bull 236587
nation@@ 236579
Koalitions@@ 236567
lieren 236562
wochen@@ 236552
Atem@@ 236506
club 236496
Blau@@ 236438
bewaff@@ 236429
beding@@ 236388
1998 236384
ug@@ 236351
zweiter 236251
Engel@@ 236232
dritt@@ 236201
ruh@@ 236150
sichten 236083
Farben 236058
ome@@ 236054
sied@@ 236018
Golf 236002
Solar@@ 235886
direkten 235872
Mühl@@ 235865
plä@@ 235856
freiwilli@@ 235821
Anlagen 235788
Gab@@ 235683
Mittelfeld 235609
klär@@ 235548
frisch 235531
konkrete 235458
Wirtschaft@@ 235390
22.@@ 235383
ran 235338
ök@@ 235324
titel 235293
atischen 235274
Songs 235271
veran@@ 235235
Spannung 235207
schwan@@ 235173
ef 235042
tiere 235032
präsentierte 234978
griff 234966
suchte 234942
International 234884
Schri@@ 234749
Tennis 234741
aff@@ 234736
verfügt 234695
Put@@ 234670
rechtliche 234666
Rett@@ 234648
Cou@@ 234620
Ausnahme 234452
Pak@@ 234309
leistungen 234303
ay@@ 234276
ess 234195
ktes 234117
Beine 234101
kinder 234089
Kurs@@ 234032
Defi@@ 234025
überzeugen 233971
Spitzenreiter 233931
Computer@@ 233916
Gutachten 233868
88 233867
falsche 233854
chens 233807
mismus 233776
Alten 233719
Höh@@ 233646
Kasse 233553
beteiligten 233542
Fabian 233480
Konto 233471
bedingt 233467
ügen 233426
Runden 233421
Franken 233408
unken 233368
kurzer 233359
katholischen 233359
tier@@ 233348
Hektar 233326
ona 233313
rennen 233270
Regie 233047
Siegen 233003
Miss@@ 232995
Erstmals 232939
schlechten 232864
Heil@@ 232841
nutz@@ 232793
disk@@ 232721
ies 232715
wehren 232686
bes@@ 232630
prei@@ 232604
planen 232569
Stor@@ 232563
Verwand@@ 232557
gesell@@ 232551
Sul@@ 232488
offene 232477
Syn@@ 232470
eingel@@ 232443
jüngste 232419
Fund@@ 232375
Exper@@ 232338
wirtschafts@@ 232319
verfolgen 232307
pflan@@ 232274
niemals 232247
verbessert 232153
Nico 232127
Silber@@ 232106
osp@@ 232099
rischen 232080
Dialog 232060
Jubiläum 232047
Syri@@ 232045
Sech@@ 231972
beschäftigen 231959
Strau@@ 231957
Wissen@@ 231952
Türen 231949
gelie@@ 231943
Tisch@@ 231911
ermöglicht 231898
nochmals 231877
Jung 231858
protesti@@ 231854
Dokument 231838
bergs 231818
ee@@ 231811
Le 231806
Nase 231805
Züge 231676
welches 231659
umstrittenen 231625
latt 231615
Rebellen 231609
Band@@ 231596
unterschie@@ 231593
keinem 231547
Umfragen 231520
show 231497
ennt 231485
ez@@ 231453
Geburt 231446
Kampagne 231436
automatisch 231403
seitdem 231403
isches 231403
stel@@ 231350
fahrt@@ 231325
zah@@ 231319
Erhöhung 231293
NSU 231263
sam@@ 231239
bekann@@ 231224
angewiesen 231206
Hat 231197
Gun@@ 231052
Rit@@ 231032
öll@@ 230969
gebunden 230954
Farbe 230952
sub@@ 230944
Fraktionschef 230882
Boot 230868
Akteure 230841
belie@@ 230827
ersetzt 230822
druck@@ 230792
öse 230774
Sche@@ 230738
ters@@ 230705
Beste 230677
entliche 230629
Freitag@@ 230618
Terroristen 230609
ritten 230582
streifen 230571
Regime 230555
pert 230470
89 230457
versteht 230435
Unterricht 230430
ebt 230426
Hunder@@ 230380
Inn@@ 230367
geschossen 230364
fangen 230296
genehmi@@ 230242
bereitschaft 230212
gelegen 230209
Ersten 230192
euch 230123
Mikro@@ 230097
Tie@@ 230094
int@@ 230033
finanziell 230013
verlust 229971
schü@@ 229968
mten 229965
Betriebe 229930
Applaus 229878
Oscar 229871
ER 229860
klagt 229853
Sind 229842
fers 229823
Turni@@ 229741
bezogen 229725
keits@@ 229554
schüler 229503
Porsche 229453
tigkeiten 229452
Belgien 229452
ams 229446
Ermittlungs@@ 229430
Minder@@ 229429
Fahrrad@@ 229396
überzeu@@ 229390
SPIEGEL 229276
Vorjahres@@ 229227
Direkt@@ 229107
Lösungen 229097
Laden 229094
übrig 229082
Reformen 229030
märkte 229018
Bildern 228941
Rheinland 228849
dend 228826
Aufbau 228823
Hotels 228677
gelangen 228663
Untersuchungs@@ 228629
gerettet 228613
Derby 228598
reagierte 228537
meisters 228488
kus 228475
Portugal 228459
17.@@ 228448
tausend 228432
erforderlich 228397
ty 228377
zau@@ 228340
einhei@@ 228297
jahren 228256
Spitzenkandid@@ 228245
investieren 228208
führenden 228199
betrieben 228177
Brenn@@ 228153
Ganze 228087
Lebensmittel 228076
Ferrari 228057
weshalb 228035
Modelle 227999
Gottes@@ 227974
03 227969
schnellen 227934
lein 227893
Flü@@ 227831
ständigen 227779
krimin@@ 227712
Provinz 227703
aufgefordert 227690
branche 227686
Partner@@ 227676
ras@@ 227658
siv@@ 227608
wart 227463
abgeben 227428
Eb@@ 227423
verständlich 227380
inierte 227353
alisieren 227284
sprecherin 227279
engagiert 227277
äufe 227213
verkehr@@ 226966
anhal@@ 226957
veröffentlichten 226954
siven 226881
scheiden 226842
Zuhörer 226842
gefällt 226767
Reich 226749
AS 226741
sters 226669
bestens 226630
Herausforderungen 226630
Kommunikation 226567
Maschinen 226524
Gefähr@@ 226455
Famili@@ 226416
zun@@ 226409
verkauf 226355
las 226349
ergänzt 226342
nehme 226314
acker 226285
klang 226256
Klar@@ 226235
kow 226232
ND 226213
Figuren 226172
dauer@@ 226150
Mission 226141
ftig 226100
Aktie 226080
Funktion@@ 226058
Distanz 226031
mmt 226031
brenn@@ 226028
hor@@ 225963
blick 225958
lem 225858
Vide@@ 225769
überwiegend 225735
neter 225735
Real@@ 225688
Ebenso 225635
bester 225600
Studien 225589
Aktualisiert 225588
Trumps 225581
zit 225553
erfolgreiche 225543
Amerika 225529
nisses 225518
islami@@ 225448
= 225445
ussi@@ 225407
Entschei@@ 225330
TSG 225306
äd@@ 225277
Militär 225273
bekannt@@ 225250
2,5 225245
istin 225225
79 225215
ebenen 225196
Rücken@@ 225171
erfolgen 225162
Tätigkeit 225160
Schwierigkeiten 225136
Jap@@ 225119
Allianz 225107
Jün@@ 225034
aussehen 225012
zentralen 225012
stimmte 224999
bekamen 224983
Europ@@ 224953
inen@@ 224952
wiederholt 224919
Scho@@ 224913
schiff 224888
Griff 224853
Russlands 224823
dauerte 224816
eff@@ 224744
gestoßen 224735
Klar 224726
Diskussionen 224726
15.@@ 224702
NATO 224675
Bundes 224659
FSV 224575
Waren 224571
Reform@@ 224534
Organisationen 224510
traditionellen 224486
orte 224480
ings@@ 224471
zuständige 224464
Ursula 224450
Frem@@ 224440
Feier 224424
entwick@@ 224408
Daimler 224405
l. 224403
Baby 224373
häu@@ 224370
Ton 224357
deutliche 224306
teurer 224256
0.000 224203
pflich@@ 224197
1945 224191
Mannschafts@@ 224137
westlichen 224111
Ministerpräsidenten 224027
Österreicher 223991
Saar@@ 223982
Lob 223980
84 223963
klappt 223908
Bauern 223903
desto 223836
Mannheim 223818
amt@@ 223805
stoppen 223804
shal@@ 223798
wil@@ 223767
Verträge 223739
Schlag 223688
gering 223667
durchschnittlich 223643
abkommen 223627
sn@@ 223621
Solidarität 223493
Spä@@ 223487
Mode@@ 223451
14.@@ 223433
for 223401
Manchmal 223397
Vorstellungen 223363
Kru@@ 223340
Pleite 223284
Besu@@ 223267
LINKE 223239
Parteitag 223210
16.@@ 223183
Forsch@@ 223179
Schatten 223079
Änderungen 223059
fuß@@ 223039
Tsch@@ 222981
Schlus@@ 222975
herausge@@ 222926
harte 222898
oli@@ 222891
82 222865
Vit@@ 222857
mannschaft 222847
Achtelfinale 222841
stim@@ 222755
Steinbrück 222701
Vereinen 222661
wen 222650
Hinspiel 222554
englischen 222545
Spreng@@ 222518
durchzu@@ 222506
dener 222439
vari@@ 222425
erschienen 222384
Rettung 222363
Volkswagen 222344
enk 222315
beschä@@ 222264
Glau@@ 222243
außergewöhn@@ 222228
Flammen 222178
Einladung 222170
Häu@@ 222094
19.@@ 222066
ka@@ 222064
− 222059
Sab@@ 222019
Durchgang 222015
verletzten 221891
Solche 221885
bemerk@@ 221884
ährt 221862
Haut 221859
AS@@ 221850
deckung 221813
Nichts 221797
Edel@@ 221671
pau@@ 221668
IP 221667
Kran@@ 221661
behauptet 221582
Männer@@ 221507
gie@@ 221505
entlassen 221456
Endspiel 221419
schneiden 221350
Elek@@ 221335
Leidenschaft 221263
positiven 221217
wuchs 221204
Mir 221160
probe 221152
Fotogra@@ 220956
einsetzen 220951
Mär@@ 220946
Wissenschaft 220933
Restaurant 220884
festen 220880
Herbst@@ 220863
Süd 220861
stor@@ 220843
kostenlos 220841
Quer@@ 220817
Beweis 220791
stur@@ 220788
Dutzend 220784
erwar@@ 220769
lieben 220747
Jäger 220722
Eishockey 220707
städtischen 220695
banken 220689
dro@@ 220636
fru@@ 220614
Nazis 220586
sodass 220529
verwei@@ 220501
king 220466
out 220379
breiten 220294
moderne 220259
Wü@@ 220217
Landwir@@ 220215
Eva 220212
Holger 220201
anen 220173
Mai@@ 220144
Kurt 220143
künfte 220115
familie 220110
Wirk@@ 220096
Zigar@@ 220054
Fahrrad 220004
klassen 219994
sperr@@ 219927
runden 219914
Kompet@@ 219820
sichtbar 219812
Polizeisprecher 219784
91 219730
klärt 219649
keineswegs 219613
verletzung 219613
Öl 219569
Reinhard 219556
kün@@ 219477
verursa@@ 219473
Erinnerungen 219360
Stahl@@ 219359
alo@@ 219341
aturen 219334
bran@@ 219330
Posi@@ 219284
ergän@@ 219166
Abends 219110
betrachtet 219109
Susanne 219099
Street 219069
kei@@ 218987
gewisse 218961
Café 218945
Sturz 218857
scharf 218853
maß@@ 218820
Schad@@ 218814
lar 218802
Asylbewerber 218797
zuzu@@ 218768
Christine 218762
denheit 218759
Arbeitsmarkt 218682
versuche 218677
Baustelle 218612
Morgen@@ 218574
Heiz@@ 218562
bergen 218509
verbände 218501
ohn 218475
reten 218468
seitigen 218462
regeln 218448
brücke 218448
IWF 218444
Fahrzeugen 218424
wurf 218308
grenz@@ 218289
vorhanden 218238
HSG 218222
Drogen 218203
Tag@@ 218138
leichte 218099
lehnt 218065
stedt 218063
Haf@@ 218001
Dienstag@@ 217996
Dok@@ 217961
Lit@@ 217909
Literatur 217860
zieh@@ 217858
Lern@@ 217852
Berichte 217838
Logi@@ 217815
Grä@@ 217804
M. 217777
Klopp 217644
herum@@ 217633
Kamer@@ 217594
1989 217580
Mak@@ 217578
dium 217577
bleibe 217564
entscheidend 217552
dus 217547
menten 217523
zugs@@ 217519
klassischen 217497
ökono@@ 217492
ennen 217431
wohnt 217427
Gleich 217378
abteilung 217369
Trennung 217330
Maier 217277
erweiter@@ 217263
forder@@ 217250
tzer 217218
ferin 217198
Stern 217163
FPÖ 217162
vereinigung 217157
empfiehlt 217150
treibt 217112
akt 217098
Aktion@@ 217078
Siege 216987
Voraussetzung 216982
produziert 216945
Gottesdienst 216911
Teilnehmern 216903
bul@@ 216893
Niederlagen 216886
bares 216885
Leh@@ 216881
Wand 216863
Taus@@ 216805
Umzug 216803
87 216766
wun@@ 216607
Beiträge 216600
Tar@@ 216571
Juri@@ 216541
abschluss 216485
AR@@ 216479
etliche 216478
stütz@@ 216450
hten 216308
ometer 216307
leid 216288
Front 216234
Auszeichnung 216208
ghausen 216163
mierten 216123
passi@@ 216117
schaftlich 216108
Wat@@ 216108
Kämpfer 216108
aktive 216095
Mol@@ 216087
eingeführt 216080
Erleb@@ 216016
Gott@@ 215995
Fleisch 215975
schre@@ 215970
rolle 215890
icht@@ 215883
kischen 215848
Cast@@ 215844
Autorin 215787
müh@@ 215770
Mü@@ 215760
interessant 215735
etz@@ 215727
sech@@ 215726
damalige 215676
amts@@ 215603
meldet 215556
Darstellung 215543
mutmaßlichen 215491
kräf@@ 215488
Videos 215487
schwierigen 215480
Petra 215476
Experim@@ 215467
ielt 215437
Person@@ 215396
entlichen 215358
ba@@ 215348
Bun@@ 215339
Wende 215251
Kommentar 215241
www.nachrichten.at 215212
IG 215204
Freudenstadt 215163
Ev@@ 215156
momentan 215141
Ander@@ 215120
gewöhn@@ 215072
ont 215071
í@@ 214991
Woh@@ 214964
dam@@ 214896
geehrt 214875
Ehe@@ 214870
Vereinigten 214829
nutzte 214827
Bremer 214807
tiker 214804
Statistik 214757
Albert 214729
Alkohol@@ 214704
urt 214681
13.@@ 214656
Zahn@@ 214645
Touri@@ 214641
Anzeige 214540
tchen 214519
ahr 214468
abgeordnete 214457
ting 214442
Klä@@ 214435
entscheidende 214408
Schauspiel@@ 214295
Mischung 214239
Microsoft 214207
Einkaufs@@ 214193
Zweck 214193
Arn@@ 214186
Fünf@@ 214180
Schumacher 214152
versorgt 214140
Fußballer 214139
fungen 214100
AK@@ 214080
erscheinen 214066
Pop 214062
gner 214040
König@@ 213972
verlegt 213923
bewus@@ 213897
trainiert 213881
geäußert 213856
stößt 213798
weiße 213725
Verkaufs@@ 213696
AD@@ 213683
worfen 213667
gefolgt 213662
Bach@@ 213591
Ortszeit 213569
gerech@@ 213547
Dr@@ 213524
nam@@ 213476
eth@@ 213456
schuldig 213212
Tit@@ 213201
techni@@ 213182
diskutieren 213170
Vielfalt 213162
Ludwigs@@ 213126
Luxemburg 213102
trock@@ 213100
92 213092
ähnliche 213080
Grundstück 213052
Bebau@@ 213030
blickt 213027
Äußerungen 212989
ank 212988
1500 212902
nehmen@@ 212846
Bundesstaat 212836
SV@@ 212786
Fabri@@ 212781
iere 212764
genossen 212750
schreck@@ 212743
Web@@ 212702
130 212696
löst 212643
fache 212633
Branchen@@ 212613
würdig 212609
Groß 212590
demokratische 212567
Normal@@ 212565
italienische 212525
packt 212493
Anne 212485
Lor@@ 212479
Alp@@ 212427
gehörten 212420
regional 212386
zahlungen 212357
decken 212353
iPhone 212345
länger@@ 212317
artig 212315
kauf 212272
Aussch@@ 212242
fr@@ 212207
beinahe 212159
kultur 212156
Mindestlohn 212117
Schriftsteller 212094
die@@ 212046
Unglück 211985
Termin@@ 211982
witz 211966
untergebracht 211932
stil 211873
messen 211855
Kontakte 211846
stattdessen 211812
Verteidigung 211810
Kollege 211804
Leider 211766
solches 211690
schlei@@ 211664
Ring 211651
Arm 211648
Jac@@ 211636
Verfol@@ 211615
langem 211596
liefen 211567
Anton 211567
Rem@@ 211505
93 211448
öhn@@ 211418
basi@@ 211416
liefer@@ 211396
Trainer@@ 211376
Bedenken 211362
Größ@@ 211332
KURIER 211297
gestürzt 211286
Mauer 211279
Minus 211273
BA 211259
straf@@ 211165
Rauch@@ 211155
Mutter@@ 211135
Physi@@ 211125
arch@@ 211104
ander 211086
atin 211068
äst@@ 210989
erschossen 210943
rede 210924
wu@@ 210922
Tabelle 210911
bede@@ 210904
Well@@ 210896
drück@@ 210887
inf@@ 210864
schützer 210820
Gefan@@ 210812
fass@@ 210803
vorsitzenden 210785
kürz@@ 210747
Flug 210746
Karne@@ 210708
Kontroll@@ 210672
Tun@@ 210616
beeindruck@@ 210549
gelun@@ 210542
erfasst 210541
Williams 210503
aktiven 210477
Bak@@ 210449
gä@@ 210427
Zehn@@ 210398
Operation 210362
Gründer 210350
kleinere 210297
belieb@@ 210271
Internationale 210246
Schlüssel@@ 210246
Aufsichtsrat 210239
wünsche 210219
pat@@ 210215
Aktivisten 210137
Arabien 210137
entschul@@ 210124
Yo@@ 210112
öffnet 210093
Mül@@ 210092
Mah@@ 210051
nee 210032
ine@@ 210030
willkommen 209999
ür 209981
Bay@@ 209910
19.30 209870
yn@@ 209866
Ebenfalls 209856
ejf 209844
bieren 209835
Dortmunder 209828
Lieder 209811
schlossene 209794
derweil 209784
Beck 209763
solch 209751
zuständigen 209750
Senioren@@ 209714
geholfen 209694
demon@@ 209676
Studi@@ 209647
Diesen 209625
geleistet 209550
zip@@ 209531
flei@@ 209530
ossen@@ 209521
ftigen 209511
technik 209478
Libyen 209477
Län@@ 209468
Sonnabend 209468
demnächst 209444
sani@@ 209439
Komi@@ 209406
bayerische 209387
Berater 209371
Kongress 209364
fühle 209318
lichkeits@@ 209301
Nachwuchs@@ 209197
überlegen 209189
lebenden 209147
vermein@@ 209133
Index 209129
Ali@@ 209040
sau@@ 209036
Konferenz 209025
Regierungen 208959
tmn 208918
enter 208829
lautete 208811
harten 208800
ov@@ 208783
singer 208745
Center 208714
denkbar 208695
900 208687
sy@@ 208668
häusern 208484
Menschenrechts@@ 208464
konkreten 208445
Berei@@ 208411
Gegent@@ 208400
1860 208384
morgens 208380
Kleidung 208308
Wahlkampf@@ 208280
partei 208275
Frankreichs 208238
sonn@@ 208227
kontrolliert 208213
spi@@ 208159
initiative 208144
feier@@ 208066
Unbekannte 208034
zö@@ 208023
auses 208019
dir 207970
Spek@@ 207948
teuren 207937
sper@@ 207882
super 207879
band@@ 207843
Verletzte 207785
Tageszeitung 207771
Fli@@ 207756
Lig@@ 207733
Lot@@ 207729
FV 207705
Vorgaben 207612
Patri@@ 207609
Gewal@@ 207597
konz@@ 207519
alt@@ 207517
ha 207509
e.@@ 207492
verändern 207488
oren@@ 207477
Potenzial 207436
kä@@ 207420
Lager@@ 207365
undenen 207364
zusätzlichen 207312
ika 207238
vergleich@@ 207223
Rats@@ 207213
Zumindest 207209
Gewi@@ 207154
rek@@ 207055
dramati@@ 207038
Vortrag 207037
Turnier@@ 207021
Analy@@ 207012
FC@@ 206994
brech@@ 206992
Typ 206917
Kamp@@ 206875
beauftragte 206838
löste 206836
Fün@@ 206805
latz 206791
Zeitungen 206777
Spanier 206766
Fr@@ 206751
kür@@ 206701
veröffentlichte 206701
legi@@ 206663
chner 206616
übergeben 206615
Arbeitslosigkeit 206601
Vermitt@@ 206498
öhnen 206486
usses 206473
Bach 206413
Wieder 206394
auseinander@@ 206386
ligist 206359
Temp@@ 206311
normal 206294
Kf@@ 206282
besitzt 206274
höch@@ 206257
flie@@ 206225
enen@@ 206212
Bou@@ 206208
begrüßte 206189
verzichtet 206179
blauen 206160
bür@@ 206118
Rückgang 206103
terien 206090
Betrieb@@ 206066
Flächen 206058
geladen 206006
Beobach@@ 205996
besser@@ 205986
stiegen 205945
Knapp 205906
bio@@ 205902
Freund@@ 205885
Fazit 205811
dy@@ 205790
nik 205779
vorgelegt 205692
minus 205675
Kaum 205671
stünden 205625
ulen 205609
Timo 205512
Chaos 205475
Höl@@ 205474
füh@@ 205370
zurückge@@ 205368
ausgel@@ 205360
üblich 205354
falschen 205341
vention@@ 205309
gemü@@ 205307
Acht 205295
här@@ 205274
tiven 205260
ungewöhn@@ 205257
keit 205242
ernden 205224
Weltmeisterschaft 205197
Berlin@@ 205197
stiftung 205151
Ihrer 205136
Gran@@ 205099
ergab 205070
freu@@ 205062
Eff@@ 205041
Oft 205017
pack@@ 204981
Erfol@@ 204969
Brexit 204957
Ange@@ 204942
Stati@@ 204941
ade@@ 204925
Islam 204888
mitgeteilt 204860
sig@@ 204842
sechsten 204822
geschoss 204783
Belastung 204781
zurzeit 204768
reck@@ 204745
Produktions@@ 204707
Aufwand 204690
verständnis 204656
eil@@ 204652
digungs@@ 204632
Ereignisse 204581
Axel 204562
Ther@@ 204553
lichsten 204543
spru@@ 204531
Taten 204523
Hoffnungen 204419
wirkte 204372
kämpfe 204353
bestätigen 204326
Ja@@ 204289
zent 204282
kunfts@@ 204261
schön@@ 204248
stürzte 204211
Infe@@ 204126
tain@@ 204113
lehnen 204064
keinerlei 204059
verbreitet 204053
fro@@ 204052
Seitdem 204013
Tän@@ 204011
fortgesetzt 203993
Können 203987
ebs@@ 203951
träger 203941
ebene 203927
Mrd. 203913
Stellung 203910
richter 203899
summe 203890
AN@@ 203880
theim 203868
mus 203867
bun@@ 203860
rah@@ 203847
dat@@ 203788
opfer 203779
ausgeb@@ 203766
dent@@ 203639
Grundstück@@ 203614
begründet 203590
Basketball 203549
bestehenden 203476
wirtschaftlich 203474
breit 203448
steu@@ 203412
tan 203381
vermutet 203367
freiwillig 203354
Versicherungs@@ 203297
station@@ 203248
Zweite 203220
landen 203191
tigungs@@ 203110
frist 203077
einerseits 203062
informierte 202991
Auskunft 202986
ow@@ 202974
Ihren 202958
verweist 202941
Sem@@ 202932
Hilf@@ 202920
Profi@@ 202911
Kni@@ 202906
jugend@@ 202903
Begeisterung 202893
Arsenal 202890
Bam@@ 202886
Dennis 202866
berater 202859
geworfen 202843
etten@@ 202669
fahrts@@ 202668
langjährige 202667
stufe 202660
thalle 202645
versuch 202643
Rudolf 202630
Gesetze 202613
Seele 202584
Herren@@ 202583
jagd 202565
dunk@@ 202526
thalten 202488
räu@@ 202461
tenberg 202461
pass 202433
Messer 202432
zustand 202410
Weiter 202397
betreuung 202331
Braun 202330
gereist 202319
Such@@ 202301
öfter 202293
wachsen@@ 202216
Deck@@ 202199
Jahresende 202198
gebürtige 202191
Strukturen 202102
Lisa 202086
Dänemark 202082
Einsatzkräfte 202060
Orten 202056
total 202039
Wirklichkeit 202037
Mayer 202017
dü@@ 202005
Ze@@ 202003
belast@@ 201972
Vorteile 201969
Mitteln 201966
ble@@ 201952
geräte 201950
umfang@@ 201892
Armut 201881
12,@@ 201824
schwär@@ 201813
Rosberg 201787
Zir@@ 201715
elli@@ 201709
Oper@@ 201684
Inhalte 201664
ausdrücklich 201659
eten 201658
wohnen 201547
Umständen 201546
Verdi 201470
gangs@@ 201464
spannend 201360
geren 201320
verteidigen 201308
Leon@@ 201300
Fit@@ 201283
Clinton 201281
Texte 201265
ktiven 201213
stellungs@@ 201213
Monika 201146
gefangen 201125
liefert 201104
Konzer@@ 201104
ziger 201095
ausgabe 201079
180 201062
echten 201053
stem 201038
enttäu@@ 201010
Zeitungs@@ 200975
Bewerber 200973
profi@@ 200940
agen 200895
46@@ 200891
Diesel@@ 200870
verdien@@ 200861
ackt 200859
tim@@ 200782
deutet 200752
RB 200727
jahres 200712
Titelverteidiger 200702
World 200670
Austausch 200654
arri@@ 200597
Erkenntnisse 200572
lierung 200566
teilung 200533
herunter@@ 200529
pan@@ 200448
eignet 200433
wich@@ 200430
ession 200426
Bundespräsident 200422
Kombination 200420
Auswär@@ 200409
Strich 200388
geflogen 200271
Bewähr@@ 200241
lt@@ 200239
Ries@@ 200211
lation 200201
jenen 200199
zell@@ 200149
verursacht 200055
traten 200013
Geschwindigkeit 199999
kler 199986
gewannen 199957
regul@@ 199955
ämmer@@ 199933
Lag@@ 199917
aggres@@ 199906
räum@@ 199863
schmerz@@ 199848
AC 199845
schli@@ 199819
Ministeri@@ 199814
befür@@ 199770
union 199763
musikalische 199742
Stoff@@ 199649
chinesische 199624
heftig 199620
mobili@@ 199593
identifi@@ 199558
Management 199556
zuversichtlich 199476
iz 199440
put@@ 199436
wahr 199411
verlangen 199410
Deswegen 199344
bedeuten 199339
mediz@@ 199327
Inhalt 199209
Herkunft 199178
gebiete 199163
Kuchen 199149
räder 199145
sexper@@ 199133
Mittwoch@@ 199111
Briten 199106
zustellen 199100
net@@ 199093
Schlagzeilen 199031
erhöhte 198983
ton@@ 198950
Match 198905
Radfahrer 198841
Heim 198799
Urlaubs@@ 198771
Sigmar 198757
Konzert@@ 198727
übrigen 198621
entwickelte 198573
Geburt@@ 198496
Ronaldo 198463
ösen 198411
Res@@ 198367
messe 198296
steigern 198279
Sarah 198250
Än@@ 198227
nie@@ 198177
geeignet 198116
Angehörige 198092
Trink@@ 198083
wohn@@ 198056
bezir@@ 198032
durchsetzen 197990
gebieten 197923
enger 197914
Hot@@ 197908
pen 197905
Überblick 197873
verletz@@ 197809
Fak@@ 197763
Räum@@ 197716
takti@@ 197711
klinik 197703
Aktualisierung 197631
kanischen 197628
beziehen 197595
effizi@@ 197584
langfristig 197578
Skand@@ 197566
Harry 197562
echt 197540
Obern@@ 197527
zufrie@@ 197479
Einkommen@@ 197466
qualität 197449
stieß 197422
betreibt 197371
Alt 197353
gesellschaftlichen 197315
Bühnen@@ 197298
Leipziger 197275
Bundesländern 197251
forscher 197230
Marie 197194
Archiv 197193
Vermieter 197153
manager 197147
nutzt 197142
ris@@ 197135
unseres 197128
Instituts 197103
erschien 197085
Gerechtigkeit 197081
gegeb@@ 197056
unterschiedlich 197032
Nag@@ 197015
Ken@@ 197008
Löff@@ 196974
94 196968
holten 196964
Pfei@@ 196934
Ähnlich 196930
Jochen 196905
tation 196869
Demonstration 196864
artikel 196838
bes 196794
stags 196752
Prin@@ 196739
umso 196729
Asien 196729
getrennt 196721
Wechsel@@ 196700
terinnen 196692
Hex@@ 196639
kal 196569
Fakten 196551
Präsidentschafts@@ 196518
Anliegen 196492
Verhandlungs@@ 196478
riesigen 196449
Lars 196410
Prof@@ 196400
bittet 196374
xf@@ 196374
Fie@@ 196352
Out@@ 196344
terte 196341
Durchschnitt 196332
promin@@ 196285
Dienste 196277
reichlich 196251
Zü@@ 196241
q 196228
besuch 196211
beobach@@ 196205
Form@@ 196172
annte 196169
freude 196149
gewarnt 196122
schütt@@ 196119
Schnell@@ 196108
kommentierte 196107
Liber@@ 196103
poli@@ 196100
Elisabeth 196100
mark 196069
Vereinbarung 196025
bemüht 196023
Motor 195968
unglück@@ 195965
pper 195963
Radio 195922
erlitt 195901
schuld 195841
Trans@@ 195824
kennen@@ 195820
verring@@ 195773
angegriffen 195773
acke 195748
beider 195721
Wohl 195718
Perspektive 195663
Umsatz@@ 195648
äum@@ 195644
Redaktion 195616
Beratung 195598
Nov@@ 195576
Hinter 195533
Smartphones 195517
Versammlung 195513
Cra@@ 195483
therapie 195448
schri@@ 195413
vorgenommen 195383
bevor@@ 195365
Cre@@ 195319
if 195295
Hunde 195295
Einstellung 195271
Köni@@ 195248
krei@@ 195239
Wein 195230
gewohn@@ 195229
sicheren 195177
gste 195168
viert 195160
zell 195099
Rad 195087
Maizière 195072
Tel@@ 195029
chingen 195020
Toile@@ 195019
schoss 194962
füllen 194946
voraus 194927
Knie 194890
ausschusses 194887
kurzem 194868
verhandelt 194866
wein 194857
ä 194800
favor@@ 194783
fluss@@ 194775
Jonas 194766
DA@@ 194721
späteren 194714
Konjunktur@@ 194696
som@@ 194654
ändert 194652
irgendwo 194643
liest 194637
Stücke 194563
Arbeitslosen@@ 194551
tee 194548
Milliarden@@ 194510
AFP 194496
Südkorea 194456
Tour@@ 194447
belastet 194445
Adresse 194428
Extre@@ 194413
ise 194355
Sportdirektor 194345
Stellvertreter 194336
gefäl@@ 194313
stiegs@@ 194303
let 194295
Szenen 194266
abgegeben 194227
10,@@ 194219
Menschenrechte 194193
Merk@@ 194191
llte 194190
werken 194187
Traum@@ 194163
ßes 194121
unterricht 194110
famili@@ 194070
Gauck 194051
zeichneten 194040
otten 194019
atische 193971
Institutionen 193924
geber@@ 193910
Hän@@ 193857
Kann 193791
abhängig 193786
europa 193778
schafter 193769
Zone 193764
Armin 193764
verlän@@ 193740
Sied@@ 193736
Herrmann 193700
chron@@ 193686
asen 193675
Scher@@ 193608
Früher 193607
versichert 193605
begrüßt 193567
dahinter 193547
Wolfs@@ 193501
Erb@@ 193500
normalen 193482
Sowohl 193479
genheit 193470
atori@@ 193448
vereinbart 193419
benö@@ 193416
Termine 193412
Junioren 193401
Stationen 193395
Strecken 193362
Pot@@ 193330
meyer 193320
strom 193273
feh@@ 193267
feste 193245
träch@@ 193208
Rez@@ 193203
Moderator 193197
mig 193180
bene 193160
alb 193150
milli@@ 193105
wettbewerb 193101
Standard 193090
folgende 193077
NPD 193033
assung 193026
hrt 193016
rechnung 192984
Freizeit@@ 192978
ichte 192972
öller 192972
Zus@@ 192903
Dien@@ 192901
gepf@@ 192899
beweisen 192835
SA 192831
welle 192820
örtlichen 192819
konservativen 192774
israelischen 192764
ausstellung 192664
kund@@ 192652
weilen 192584
harm@@ 192562
sprochen 192536
eben@@ 192509
Kategorie 192477
schir@@ 192443
Niemand 192438
Spor@@ 192422
EN@@ 192394
versicherte 192387
einstellen 192376
kritische 192356
Kirchen 192342
&gt; 192257
Mini 192204
Spenden@@ 192177
Auflage 192177
binnen 192139
Haben 192123
Plätzen 192116
Bett 192107
Calw 192101
Sehr 192082
flüch@@ 192039
ieten 192000
gegner 191982
Pfalz 191979
hinterher 191942
bildet 191919
äte 191905
Weltmeister@@ 191806
beln 191760
Republikaner 191749
Jede 191687
oos 191686
Lena 191685
Dah@@ 191651
Ihm 191646
Vereinigung 191609
Spi@@ 191606
schlicht 191597
benden 191592
drängen 191587
Haas 191582
bloß 191574
Betroffene 191556
Schreib@@ 191555
abends 191553
Zusammen 191533
befürchten 191533
Wurzeln 191513
deu@@ 191508
not 191484
Wandel 191471
Kommun@@ 191468
liert 191412
Roth 191373
Stun@@ 191346
Option 191338
Stellen@@ 191322
kriegs@@ 191310
euer@@ 191286
still@@ 191275
rik 191261
ly@@ 191259
durchschnit@@ 191242
risk@@ 191229
inhal@@ 191195
erweise 191179
tent@@ 191175
Organisatoren 191164
Islamisten 191152
ürt 191131
Punk@@ 191100
Siemens 191095
Emi@@ 191095
Zürich 191087
Bochum 191081
Flor@@ 191076
nachrichten 191033
Lastwagen 191002
jen@@ 190973
Kunden@@ 190972
vermitteln 190912
entscheidung 190905
El 190902
frag@@ 190896
stuhl 190896
wind 190842
Pl@@ 190832
Beschäftigte 190832
arm@@ 190741
Ai@@ 190734
verschul@@ 190727
Qual@@ 190694
zeuge 190684
locken 190623
Gerd 190620
Haushalte 190593
Sich@@ 190574
Pariser 190570
verli@@ 190559
Erfurt 190484
Austria 190475
nummer 190440
wol@@ 190420
griechische 190416
Hauptversammlung 190408
schluss@@ 190372
boden 190344
Landschaft 190316
welchem 190256
inieren 190206
richtete 190195
grenzung 190139
Milch@@ 190121
dreimal 190121
CO2 190115
bat 190070
Stan@@ 190025
ADAC 190006
Neustadt 189978
punk@@ 189973
ruppe 189958
Magdeburg 189909
Lewandowski 189907
ca. 189889
Gün@@ 189820
Sit@@ 189768
berücksichtigt 189767
spanische 189760
Verhältnisse 189710
För@@ 189695
zep@@ 189664
Ehemann 189629
fasz@@ 189553
kapit@@ 189552
gezwungen 189544
Katharina 189494
Tanz 189478
betrug 189436
Geschehen 189400
ding@@ 189395
sportlichen 189364
Nation@@ 189363
reduziert 189327
zeitweise 189305
loser 189293
mittag 189259
tener 189212
bigen 189189
igten 189107
Energiewende 189105
klingen 189084
zig@@ 189072
chel@@ 189072
zwin@@ 189008
Zy@@ 188984
Alternativen 188963
kolle@@ 188912
finale 188851
Apothe@@ 188845
ös 188843
Berlins 188841
ausgehen 188790
sichert 188765
gefördert 188744
üblichen 188743
Autob@@ 188715
enkel 188671
HC 188667
heb@@ 188648
zieher 188608
ausführ@@ 188576
zwischen@@ 188554
verschie@@ 188551
diejenigen 188520
gebot 188513
schlossenen 188485
Hitler 188441
konzentrieren 188399
AM@@ 188394
inder 188383
Sur@@ 188301
österreichische 188259
stig 188250
läufer 188221
seel@@ 188219
Demokra@@ 188219
Bevor 188213
feierten 188152
Pilot 188142
erlitten 188140
namens 188119
DRK 188075
Peter@@ 188017
Hav@@ 188012
keln 187949
Geist 187939
hand 187935
gebühren 187911
grafi@@ 187855
I. 187836
stün@@ 187745
nationale 187737
Vordergrund 187708
Gewicht 187701
Mein@@ 187672
Eines 187629
ausgestattet 187611
Frü@@ 187572
splan@@ 187537
Übri@@ 187531
dn@@ 187492
teln 187460
Typ@@ 187443
hergestellt 187427
line 187421
Dominik 187384
strate@@ 187380
ble 187361
kette 187332
befürchtet 187323
Norwegen 187250
Donnerstag@@ 187232
bestellt 187202
errichtet 187179
ausgegangen 187164
begründete 187155
Reaktionen 187126
ulation 187104
Kab@@ 187056
Kär@@ 186977
Küste 186976
app 186941
Vormittag 186929
dit 186914
Graf 186899
Alfred 186887
Finanzkrise 186875
längere 186850
mot@@ 186812
wehrt 186809
beur@@ 186792
loch 186743
Brei@@ 186700
verteidigt 186697
War 186671
Landratsamt 186658
Ed@@ 186656
Rand@@ 186637
versamm@@ 186635
auftreten 186623
Chelsea 186611
zenten 186599
sprä@@ 186540
Basi@@ 186482
fördert 186469
enorm 186468
38@@ 186468
handelte 186428
schlagenen 186405
stands@@ 186299
ong 186253
gli@@ 186185
mis 186049
fahrens 186026
vormittag 185996
komplette 185978
Investor 185951
Medikamente 185950
lacht 185905
Zäh@@ 185851
Sicher@@ 185845
Mitglieds@@ 185803
Altstadt 185782
Lad@@ 185761
Kompromiss 185744
ink 185742
Bürgermeisterin 185733
Uli 185691
1994 185680
Ensemble 185662
leitete 185642
angesprochen 185638
staun@@ 185629
trinken 185613
Flie@@ 185597
stadion 185576
Jedes 185576
Dorn@@ 185553
Beschwerden 185550
Tabellenführer 185544
theore@@ 185534
Hochschul@@ 185516
optimistisch 185480
gram@@ 185425
fasste 185319
ands 185306
grün 185294
Verluste 185286
Betrag 185251
Einsätze 185213
märkten 185183
Äl@@ 185178
waffe 185175
fahrerin 185130
stöße 185105
will@@ 185064
schme@@ 185035
arkt 185020
mancher 185002
Kil@@ 184968
Kostü@@ 184948
hen@@ 184880
diplom@@ 184798
vernün@@ 184783
marke 184712
Komp@@ 184710
itzen 184697
funktionieren 184689
gehend 184677
inger@@ 184644
Foto@@ 184627
Vermögen 184608
Nei@@ 184581
Trio 184559
Pass 184554
ruhen 184533
ück 184531
Italiener 184495
material 184485
Metall 184451
niedri@@ 184427
Hochzeit 184322
Betra@@ 184271
berühmten 184266
Hun@@ 184246
mo 184228
Guido 184208
stimm@@ 184181
Identität 184179
älle 184178
ächter 184166
Hall@@ 184146
spenden 184135
locker 184100
Red@@ 184078
verwand@@ 184066
erend 184065
gewiss 184059
herrschte 184054
fürchten 184041
verschwunden 184040
figen 183997
zin@@ 183982
wachen 183971
Bundesamt 183956
Auftritte 183940
eli@@ 183893
inszen@@ 183870
spunkt 183863
appelli@@ 183847
Ankündigung 183847
prof@@ 183824
Rou@@ 183821
Landtagswahl 183779
ollt 183762
Doppel 183757
Athleten 183756
Fasch@@ 183746
lebende 183744
vorläu@@ 183700
ide 183689
antin 183688
discher 183685
überrasch@@ 183666
sechs@@ 183644
Schock 183600
Maß 183495
gezielt 183469
finanzieren 183459
illi@@ 183397
lichten 183364
laufende 183342
Verbesserung 183317
hersteller 183285
tiver 183242
zar@@ 183212
Hit@@ 183209
ergänzte 183198
region 183154
Samm@@ 183140
ähnlichen 183127
4000 183123
dis 183047
mutter 183028
strahlt 183001
Gesam@@ 182996
ernd 182994
sidentin 182968
wski 182925
Planungs@@ 182904
trennen 182887
deutlichen 182882
Pressemitteilung 182860
Londoner 182854
unfall 182834
landes@@ 182789
geheim@@ 182777
Klassiker 182776
Körperverletzung 182754
My@@ 182747
sämtliche 182737
fur@@ 182709
Rollen 182709
diesjährigen 182704
sl@@ 182682
Chinas 182648
erzielen 182645
Therapie 182589
studiert 182565
Mühe 182537
Unterhaltung 182529
anwes@@ 182512
shilfe 182512
grad 182481
Superstar 182467
rates 182457
gesellschaftliche 182434
erklärung 182433
eim 182431
antrag 182424
absolviert 182411
regen 182379
Hunde@@ 182330
versprach 182326
stimmten 182322
baus 182299
nehmung 182271
dür@@ 182266
gelesen 182241
DR 182226
Schlei@@ 182188
krank 182143
Loh@@ 182116
tran@@ 182108
jetzigen 182092
af 182075
schrän@@ 182068
Passag@@ 182049
350 182000
Video@@ 181977
geld@@ 181963
Gramm 181916
wirbt 181906
Charakter 181904
KA 181894
ungsplan 181891
lohnt 181878
Wall 181860
Kassi@@ 181860
nachts 181800
spart 181798
Glauben 181797
rückte 181788
Silber 181736
til@@ 181734
Handlungs@@ 181732
dite 181730
gewor@@ 181721
Gerä@@ 181719
berufen 181703
ausgesch@@ 181700
tauchen 181666
Rentner 181664
verträge 181612
engruppe 181602
tsp@@ 181594
Tasche 181541
bekämp@@ 181540
zweifelt 181487
Geträn@@ 181423
Jahrhunder@@ 181406
Lösch@@ 181376
Freistoß 181376
griffe 181363
einhalb 181362
rische 181355
Las@@ 181346
Wettbewerbs@@ 181340
geborene 181322
1997 181316
a. 181312
Orchester 181281
Leiche 181267
ets 181266
ire 181199
Dich@@ 181158
vision 181111
Beratungs@@ 181108
grat@@ 181087
Dritte 181065
Ansonsten 181055
Fonds 181044
Russen 181023
Papiere 181015
APA 181008
Jur@@ 180975
Zahlreiche 180971
fasst 180955
160 180950
schenden 180890
Metall@@ 180884
ängen 180879
scher@@ 180838
polizei 180822
ernen 180811
Reporter 180800
Doping 180793
best@@ 180745
Jones 180732
gehende 180701
dring@@ 180667
geschätzt 180657
gerä@@ 180629
Braunschweig 180594
jekt 180575
Schwerpunkt 180575
Heiko 180572
Sän@@ 180571
Dy@@ 180556
Europa@@ 180542
geeig@@ 180532
matisch 180506
erhebliche 180495
erhoben 180480
ungs- 180463
analy@@ 180411
Initi@@ 180398
Erich 180370
Kleinen 180294
Rh@@ 180225
Ordnungs@@ 180217
boten 180165
sexu@@ 180157
worben 180136
mangel 180127
magazin 180094
kriti@@ 180094
xis 180055
eh 180034
Stri@@ 180002
Program@@ 179965
Mitgliedschaft 179942
stärksten 179933
geringer 179916
extra 179895
vermögen 179879
amts 179868
97 179858
kämen 179858
Cas@@ 179853
spräsidenten 179838
Stütz@@ 179828
Halte@@ 179823
Vereinten 179820
Vir@@ 179778
Sho@@ 179736
aufgehoben 179722
Nacht@@ 179713
Stress 179684
brut@@ 179662
Schir@@ 179596
formu@@ 179558
gemessen 179548
Betreuungs@@ 179525
zweier 179523
fing 179486
systems 179417
zukommen 179391
reißen 179388
senen 179289
under 179255
speziell 179255
Schließung 179250
Ernährung 179240
Anwes@@ 179193
mensch@@ 179176
gestohlen 179143
lr 179132
ail@@ 179122
angelegt 179108
Gesetzes@@ 179072
ologisch 179057
endgül@@ 179032
Zusch@@ 179002
Länge 178991
äufer 178946
Oh@@ 178915
IT@@ 178915
posten 178900
Absage 178889
run@@ 178843
schlossen@@ 178840
fröh@@ 178821
Hafen 178820
Hitze 178798
bindung 178783
eingeleitet 178754
derungs@@ 178693
Abstieg 178692
Verspä@@ 178674
einzigar@@ 178671
siger 178655
Linz 178649
ORF 178636
Umfang 178636
110 178626
Frie@@ 178538
Botschafter 178525
rise 178524
ansonsten 178479
sungen 178467
German@@ 178374
Pie@@ 178367
streichen 178360
Brüder 178359
Favorit 178356
akzeptieren 178342
row 178312
stik@@ 178302
Mailand 178232
Zut@@ 178228
straßen 178217
zie@@ 178211
Mindestens 178197
anschlag 178188
ekt 178185
ersetzen 178177
Journalist 178169
arr@@ 178165
Trü@@ 178150
verhältnisse 178140
anfangs 178122
heiß 178119
Stolz 178115
bühne 178085
May@@ 178084
liebsten 178065
ells 178050
reichsten 178033
siehe 178024
Opfern 178014
Opposition@@ 177992
Unterlagen 177990
wat@@ 177948
Allein@@ 177946
Angeb@@ 177945
hofer 177941
versprechen 177939
verkauften 177920
Muslime 177865
stad@@ 177833
sichere 177830
vorher@@ 177829
rest@@ 177813
Flüchtling@@ 177800
Unterschiede 177783
Piraten 177782
Kammer@@ 177780
inierten 177765
schalten 177749
ertes 177734
lehrer 177731
park@@ 177718
ziel 177686
Trag@@ 177667
Insolvenz@@ 177665
zigen 177656
Vertretern 177642
oth 177627
Bereitschaft 177624
EL@@ 177620
dingen 177600
drucken 177570
wirkung 177570
sive 177563
danke 177507
Kandid@@ 177445
140 177437
Seh@@ 177434
Zin@@ 177432
pass@@ 177429
erheb@@ 177423
Staates 177400
dokum@@ 177398
Panz@@ 177384
alisi@@ 177373
Beobachter 177363
Düsseldorfer 177330
Past@@ 177307
ausfallen 177275
Koll@@ 177250
akzep@@ 177244
K. 177244
nier 177231
ny 177218
Zweiter 177216
lock@@ 177209
prin@@ 177190
Eur@@ 177172
zugunsten 177153
Hell@@ 177145
Stim@@ 177127
Thüringer 177104
Tschechien 177101
fei@@ 177097
port@@ 177091
einheit 177081
verkündet 177058
hab 177047
fün@@ 177040
verbringen 176984
Finger 176968
Hahn 176898
Rak@@ 176884
genaue 176876
wende 176862
gger 176856
haupt@@ 176810
1995 176768
dies@@ 176739
ital 176737
dauerhaft 176699
fehler 176668
Git@@ 176641
dauer 176601
Befragten 176599
Glas 176592
Einmal 176589
Hollande 176577
währ@@ 176564
Udo 176540
Medizin 176527
trainieren 176503
kers 176488
festgelegt 176471
musikalischen 176434
umgehen 176424
cu@@ 176421
geräumt 176397
Dru@@ 176368
High@@ 176342
mord@@ 176298
geradezu 176285
transpor@@ 176280
gestoppt 176262
Deal 176235
Streik 176206
jüdischen 176205
bestimmen 176178
verletzungen 176166
soweit 176143
Robin 176138
Veröffentlichung 176136
Prof. 176133
May 176125
Zwangs@@ 176106
betrag 176102
onien 176067
Verpflichtung 176061
kauft 176025
Quote 175989
Spekulationen 175923
dis@@ 175919
rannt 175888
betreiben 175879
derart 175863
Eg@@ 175791
Konstanz 175771
Prop@@ 175770
notwendigen 175770
bedro@@ 175765
seiten 175760
schäden 175757
Triumph 175718
kleineren 175715
mittels 175694
hte 175678
oper@@ 175662
Debüt 175657
ritt 175652
sächsischen 175620
Hohen@@ 175606
gestrichen 175606
künstl@@ 175603
mut 175584
gelo@@ 175543
genü@@ 175533
ärgert 175513
Argentinien 175513
Weil@@ 175454
J 175445
olo@@ 175445
Sum@@ 175442
Ablauf 175420
Übergangs@@ 175382
Kassen 175347
Planungen 175343
spektakul@@ 175331
Zukunfts@@ 175328
fünfte 175324
näch@@ 175307
Orte 175307
nunmehr 175286
Verletzten 175228
demo@@ 175209
Kassel 175178
vermittelt 175171
Benedikt 175142
sozi@@ 175141
Wulff 175138
ergeb@@ 175076
Kilo 175067
trags 175036
kas 175027
syrische 175024
Situationen 174991
Wend@@ 174959
flexi@@ 174937
Generationen 174921
tot@@ 174876
1996 174835
entla@@ 174790
vermis@@ 174771
Attacke 174766
en- 174727
lie 174725
Gegn@@ 174703
abgesagt 174695
gebie@@ 174681
Asyl 174679
Teilnehmer@@ 174677
mehrmals 174671
kompet@@ 174653
Bär@@ 174613
scheinbar 174602
Knei@@ 174599
Anforderungen 174593
Här@@ 174556
enkt 174511
Persön@@ 174507
Hallen@@ 174421
beleu@@ 174420
Blum@@ 174379
Humor 174370
Ingolstadt 174362
Warte@@ 174330
schöner 174312
este 174309
ello 174305
Zwöl@@ 174288
char@@ 174285
Literatur@@ 174280
stärkste 174265
beitragen 174256
Dur@@ 174245
Modell@@ 174200
führerin 174175
effek@@ 174166
hervorra@@ 174151
schwachen 174133
gefährlichen 174121
berge 174119
Mund@@ 174089
Vorlage 174081
llten 174061
krä@@ 174049
Investi@@ 174025
Prognose 174013
Michel 174012
genes 173987
vermie@@ 173986
Chris 173965
finan@@ 173936
US@@ 173924
nachrichten.at 173846
einheiten 173839
aush@@ 173828
inter 173813
gesund 173796
konzentriert 173790
Gebühren 173774
sorge 173771
Aktuell 173769
unen 173752
Attra@@ 173751
Fuchs 173718
Ehre 173713
kr@@ 173680
pon@@ 173641
Visier 173636
Grei@@ 173627
parlament@@ 173605
asser 173603
klagen 173593
Repar@@ 173572
schütze 173548
senken 173501
beantragt 173480
tab@@ 173474
Trikot 173452
entdecken 173451
Erfin@@ 173429
sene 173379
text 173369
systeme 173356
Tränen 173344
höhe 173335
90. 173296
toll 173296
kandidat 173292
zweites 173274
genauer 173250
Konzep@@ 173240
verbot@@ 173232
reihe 173225
NS 173188
israelische 173185
Konfli@@ 173183
Österreichs 173180
gendes 173152
Stadtt@@ 173138
Glücks@@ 173082
Vogel 173036
freundlich 173031
tmann 173015
besonderes 173005
schönsten 173004
Adler 172999
Parlaments@@ 172960
Regierungschefs 172948
urin 172928
sportliche 172919
verlauf 172894
ult 172893
Tickets 172881
gemeint 172880
Haare 172873
Glo@@ 172869
Hoffmann 172865
organisieren 172863
Gegenzug 172849
Ortsvorsteher 172815
mutmaßliche 172791
ahlen 172786
einstigen 172782
Ausnahme@@ 172781
Fahrzeug@@ 172771
top@@ 172769
ja@@ 172761
Veränderung 172726
Klin@@ 172674
durchs 172634
arabischen 172622
jüngeren 172608
bayern 172591
Scha@@ 172587
reffen 172578
post.de 172578
Produkt 172548
russi@@ 172545
Dame 172544
pflicht 172537
liter@@ 172527
religi@@ 172519
Schmerzen 172488
tzen 172465
Tourismus@@ 172459
1992 172430
Auslands@@ 172417
Kämp@@ 172398
Schach@@ 172361
lands 172356
niveau 172356
Mac@@ 172339
Mund 172332
Büh@@ 172322
Dritter 172282
Karin 172281
ore@@ 172279
Aller@@ 172269
Verbindungen 172238
kamp 172203
Bezirksliga 172202
gelder 172195
bestimm@@ 172171
täglichen 172141
aks 172131
produktion 172113
Therap@@ 172083
danken 172074
hafen 172060
ami@@ 172057
führende 172038
stag@@ 172034
Haushal@@ 172027
sing 172020
Westerwelle 172012
Talent 171968
hof@@ 171892
pfle@@ 171889
Robben 171882
bein@@ 171877
Bielefeld 171847
Yorker 171838
ätze 171832
Schlos@@ 171811
amer@@ 171810
ausch 171778
vermisst 171777
kritischen 171761
Koalition@@ 171755
Bat@@ 171750
Carl 171744
Carsten 171726
emotion@@ 171718
Arz@@ 171717
Agrar@@ 171708
letztes 171705
publi@@ 171705
erle@@ 171703
jahrelang 171681
Ski 171664
Huber 171646
Sturm@@ 171572
Wünsche 171563
werben 171552
Beru@@ 171551
Gefahren 171539
kompli@@ 171532
Konzerns 171531
geschützt 171520
einander@@ 171506
befreit 171503
anstalt 171495
Milliarde 171481
tiefer 171476
atik 171476
Ben 171468
angeneh@@ 171434
Agenda 171434
Marktplatz 171432
tigungen 171431
altung 171407
Kath@@ 171402
Duisburg 171400
Irland 171355
Aachen 171332
sle@@ 171285
jähriges 171282
politiker 171281
sozial 171267
Sterne 171243
stischer 171217
angemeldet 171211
Kredi@@ 171209
Alte 171203
artige 171199
witz@@ 171159
Silv@@ 171158
unmöglich 171127
Technologie 171125
würdigen 171105
Rand 171104
Fortschritte 171099
Laura 171091
Präsi@@ 171091
kommand@@ 171073
Gemü@@ 171061
erklärten 171054
sturm 170986
utter@@ 170962
Rückzug 170942
wache 170925
bunten 170903
traum 170898
sowieso 170892
kenne 170887
10.000 170853
management 170848
Metz@@ 170820
solange 170790
kriegen 170787
Klima 170765
elen 170718
Unglück@@ 170696
laubnis 170678
sil@@ 170669
Schwar@@ 170632
ausgaben 170625
nötige 170592
BILD 170569
Kör@@ 170558
evangelischen 170540
Tieren 170536
fluss 170521
ome 170517
rufe 170504
standes 170500
Copyright 170446
Nich@@ 170426
Kari@@ 170418
abseh@@ 170417
digitalen 170413
inform@@ 170413
Anfang@@ 170394
Eurozone 170345
traditionell 170332
Energien 170321
gegenseitig 170314
Amtsgericht 170307
ama 170291
kg 170282
zeln 170277
üre 170261
horst 170253
sh 170250
zulassen 170243
umstrittene 170243
ignori@@ 170238
natur@@ 170234
Niederlanden 170231
vorzeitig 170215
teri@@ 170205
fasch@@ 170199
gängen 170182
Favoriten 170153
halts@@ 170136
Sieben@@ 170109
kreu@@ 170107
rassi@@ 170086
Fähigkeiten 170083
06@@ 170017
jf@@ 170007
virtu@@ 169986
mögen 169963
generell 169963
Säu@@ 169947
Defensive 169916
beliebt 169913
vel@@ 169905
Frau@@ 169886
horn 169866
Fes@@ 169863
gerichtshof 169841
schrau@@ 169824
gefährliche 169822
Wiese 169738
Lieblings@@ 169697
fehlten 169675
Differ@@ 169600
Jazz 169572
Sammlung 169549
Reser@@ 169547
atur@@ 169522
OS@@ 169505
striert 169503
Klassenerhalt 169498
hinnehmen 169496
Kult@@ 169493
tung@@ 169471
23.@@ 169469
issen 169458
voe 169440
Kündigung 169437
jün@@ 169408
zulegen 169405
alist@@ 169404
gesunken 169401
eilen 169398
Ehepaar 169395
Pin@@ 169375
Geschenk 169346
Himmel@@ 169324
reduzieren 169302
angaben 169300
Taliban 169276
Ner@@ 169270
Ble@@ 169215
Fortuna 169214
verschoben 169184
harmon@@ 169145
Beg@@ 169081
sprach@@ 169059
binden 169024
gemi@@ 168991
spor@@ 168990
Maschinen@@ 168973
suchung 168949
schieben 168929
zeichnungen 168926
Würde 168896
Gewer@@ 168895
Abschluss@@ 168892
sowje@@ 168865
Mittelfeldspieler 168860
gäbe 168838
3,5 168803
Maximilian 168782
Wähler@@ 168781
wahren 168751
Ress@@ 168694
massiven 168692
Landesliga 168688
Chr@@ 168681
22@@ 168655
saniert 168630
stattet 168598
Mütter 168592
jag@@ 168574
umgehend 168513
Kohl@@ 168498
bewertet 168452
Langen@@ 168449
ament@@ 168444
tex@@ 168419
Bronze 168418
bewiesen 168389
Moritz 168389
rug 168387
Vertre@@ 168373
einfache 168367
Torjäger 168365
entzün@@ 168361
Gegend 168321
enor@@ 168318
fachen 168316
orf 168287
Waffe 168285
entiert 168281
ftet 168280
.de. 168272
höchst 168257
ong@@ 168206
entschlossen 168181
vers 168164
Siegfried 168158
mitunter 168145
rier 168140
Mike 168127
1,2 168107
Sicherheit@@ 168100
Tagesordnung 168088
licht@@ 168047
enthält 168038
bremse 168022
unterdessen 168015
Märkte 167985
Explosion 167953
eist@@ 167917
Frühling 167838
sha@@ 167825
VG 167820
Boo@@ 167805
itzer 167785
reser@@ 167770
kind 167761
alog 167725
privat 167693
wohnern 167683
Kapitalismus 167670
gru@@ 167668
Grü@@ 167666
Wehr 167648
Kloster@@ 167645
touri@@ 167641
schefin 167638
Diesmal 167606
mittei@@ 167603
absolute 167597
Absturz 167589
explo@@ 167584
user 167578
are@@ 167564
program@@ 167564
Kirchengemeinde 167560
rand 167558
gehei@@ 167553
getreten 167546
registriert 167545
Thorsten 167530
Flä@@ 167461
köni@@ 167458
zentr@@ 167453
stamm@@ 167445
betro@@ 167434
konkret 167418
Sowjetunion 167394
wegs 167369
leichten 167362
Rent@@ 167359
ili@@ 167348
belegen 167333
Kartoff@@ 167312
thema 167296
handele 167293
Freie 167292
Ortschafts@@ 167272
Köl@@ 167234
stabili@@ 167182
drehte 167156
Miete 167146
Krebs 167124
Last 167089
Var@@ 167070
herauszu@@ 167013
Kai 166995
Erhalt 166983
umfasst 166980
Flüge 166975
Katar 166949
hinterlassen 166937
Franzö@@ 166937
Evangel@@ 166929
Bestehen 166926
gespräch 166880
verantworten 166879
seits 166873
jederzeit 166859
stol@@ 166753
verlässt 166737
prüfung 166725
kni@@ 166703
Protesten 166653
Tim@@ 166592
RE@@ 166568
Musikverein 166553
stö@@ 166542
gelegenen 166442
verpasste 166438
elektri@@ 166369
Ruhestand 166365
Präsentation 166290
rn@@ 166288
dau 166266
Vielmehr 166251
Port@@ 166249
Balingen 166226
Oper 166212
sfeld 166204
ungefähr 166201
xe 166197
dlichkeit 166197
Ambi@@ 166196
baden 166188
Özil 166188
Etwas 166169
Meier 166148
motivi@@ 166130
Baar 166115
Übungs@@ 166114
Kim@@ 166059
Areal 166019
Will 166011
größter 165978
Gemüse 165963
Bundespolizei 165940
Schaf@@ 165928
Elfmeter 165924
Strand 165915
Chefs 165910
stirbt 165908
Kontrollen 165907
Sandra 165904
Messi 165894
verbindet 165886
Kick@@ 165855
position 165844
leidung 165837
Sogar 165821
Rasen 165808
ftung 165769
nicht@@ 165757
Tiefe 165751
Design 165724
Drama 165718
dels 165711
steigenden 165667
Schaff@@ 165634
läufig 165626
nötigen 165599
final 165587
reiter 165574
Vie@@ 165555
ci 165546
A. 165489
Darunter 165468
GE@@ 165453
erober@@ 165429
Hauptbahnhof 165413
fertigen 165396
benach@@ 165382
ring 165364
herer 165354
verrät 165352
Offenbar 165343
kehren 165331
Ly@@ 165316
Heb@@ 165300
Besitz 165251
verschär@@ 165239
scho@@ 165219
hang 165198
1991 165172
Breit@@ 165145
geb 165112
info 165079
besetzten 165075
Glob@@ 165068
erwi@@ 165068
verlu@@ 165051
tom@@ 165037
Nö@@ 164968
Gis@@ 164965
Bol@@ 164962
agt 164949
funden 164937
Mode 164918
Erster 164918
Effekt 164914
Wettkampf 164898
Aufregung 164887
Lem@@ 164878
brüche 164878
schwieriger 164870
Musli@@ 164852
Final@@ 164832
Niederlande 164823
Demonstrationen 164819
Jen@@ 164812
diges 164752
alistischen 164733
tigem 164670
fanta@@ 164666
Wör@@ 164646
Fremd@@ 164622
massive 164610
Entwicklungen 164608
Ford 164581
Götze 164578
bevorzu@@ 164565
Erwachsenen 164517
Joseph 164513
ausgegeben 164513
vorübergehend 164493
hofen 164491
Bin@@ 164477
Göttingen 164438
bungs@@ 164392
blü@@ 164375
neun@@ 164368
Wolf@@ 164324
Blä@@ 164323
seler 164323
seri@@ 164322
Transparenz 164316
Pres@@ 164310
Schweinsteiger 164302
sofern 164281
OS 164241
gespannt 164223
Burg 164202
Fall@@ 164170
zügig 164120
lik@@ 164106
Finan@@ 164104
unglaublich 164094
rechtsextre@@ 164088
vergleichsweise 164079
Mitt@@ 164063
mittags 164058
Englisch 164035
Reuters 164023
erseits 164011
atten 164002
born 163997
gesetzliche 163995
Ära 163984
Gestaltung 163960
Gum@@ 163954
Ess@@ 163946
mbach 163938
Status 163937
Tü@@ 163897
Bauarbeiten 163880
quar@@ 163877
Zentrale 163813
figur 163811
Ermitt@@ 163768
belegte 163768
sank 163768
siegte 163746
angriff 163744
Flag@@ 163724
Rekordmeister 163723
Sotschi 163698
Hochschulen 163696
Keh@@ 163682
riesige 163670
sun@@ 163626
anspruchs@@ 163595
its 163590
köpfi@@ 163584
Deutschland@@ 163577
gefü@@ 163566
ham 163543
gelingen 163541
räte 163523
raum@@ 163512
innen@@ 163475
gründeten 163463
berat@@ 163452
Neonaz@@ 163375
Wohnen 163369
lierte 163368
män@@ 163340
starker 163300
verhältnis 163273
Snowden 163273
Recher@@ 163265
Nahrungs@@ 163200
Währungs@@ 163193
Sprech@@ 163192
warnung 163182
Lahm 163173
DE@@ 163155
sachen 163154
Zauber@@ 163146
heutige 163111
Col@@ 163109
Gutach@@ 163087
isten 162969
Freizeit 162964
Gremi@@ 162955
beratung 162938
Neum@@ 162931
Mecklenburg 162922
funk@@ 162911
PC 162906
orn 162886
Allgemeinen 162882
Gibt 162877
50.000 162852
Attent@@ 162852
ovic 162844
berau@@ 162805
fet@@ 162778
kontrollieren 162770
Straftaten 162742
Schlaf@@ 162723
Jak@@ 162723
Konkre@@ 162717
stem@@ 162691
kin 162664
Mobil@@ 162662
Liverpool 162625
lässig 162547
Falls 162529
gesellschaften 162510
Abschnitt 162480
IN@@ 162472
technisch 162462
GB 162342
Bereiche 162289
Parteichef 162287
Vortag 162285
Kreu@@ 162284
Alex 162237
Erweiterung 162230
beitrag 162221
erisch 162207
BSC 162180
Israels 162161
Fanta@@ 162157
veranstal@@ 162131
pap@@ 162130
eigent@@ 162108
ört 162066
Kenntnis 162037
Dietmar 162011
Qualifik@@ 162010
Konzerte 161985
Auseinandersetzungen 161958
Konzerne 161955
ätz@@ 161936
Gä@@ 161928
initi@@ 161926
Ari@@ 161913
Instagram 161909
Trauer@@ 161894
konsequent 161889
latt@@ 161884
Martina 161869
Gig@@ 161840
Leich@@ 161840
Fur@@ 161837
verlei@@ 161813
grä@@ 161806
interess@@ 161792
Stol@@ 161784
Erkrankung 161771
chten@@ 161751
ambi@@ 161731
angebote 161724
umstritten 161686
räumt 161672
formuliert 161670
14,@@ 161665
Rout@@ 161609
eid 161547
Bayerns 161534
Blan@@ 161516
konservative 161508
gespräche 161480
ert@@ 161427
Unabhängi@@ 161414
Eingang 161380
mme 161371
xd@@ 161367
Versch@@ 161344
fügt 161310
Königin 161271
herausra@@ 161255
aktu@@ 161243
bisch 161233
Show@@ 161226
Sand 161202
manipu@@ 161201
unk 161200
Ersatz 161197
bist 161173
einnahmen 161171
Schau 161157
verabschie@@ 161150
ey@@ 161148
Bruno 161145
bische 161132
baute 161095
OL@@ 161089
roman@@ 161082
Kühl@@ 161075
Unterstütz@@ 161037
Kreisliga 161018
Jahrgang 160998
kuri@@ 160972
gül@@ 160962
fert 160915
60@@ 160909
behaupten 160908
Mittag 160888
Beschul@@ 160882
steig 160881
Sparkasse 160869
Lese@@ 160847
Instru@@ 160845
symboli@@ 160821
Korruption 160811
Ursachen 160807
Vergewal@@ 160800
betriebe 160794
wissenschaftler 160766
Pädago@@ 160746
notwendige 160732
Berichten 160710
Villa 160710
Demokraten 160706
Still@@ 160692
Rang@@ 160677
mien 160676
artigen 160643
esten 160606
Image 160593
beantworten 160583
Kommune 160580
arbeiteten 160574
Farb@@ 160558
einfacher 160541
Katholi@@ 160539
Brigitte 160535
souverän 160526
sensi@@ 160526
Costa 160508
Spie@@ 160497
ain 160472
länder@@ 160399
Versich@@ 160376
William 160359
ica 160356
Franziskus 160349
III 160334
ausgebaut 160284
polizei@@ 160269
Boris 160265
Kunde 160259
vie@@ 160251
gedreht 160230
Maut 160225
hohem 160197
esses 160187
toren 160182
Delegi@@ 160161
Medaille 160150
Käufer 160124
brauch 160115
ungslos 160102
Konrad 160083
leitungen 160053
zwang 160018
asse@@ 160008
vertei@@ 160001
betreiber 159975
lehnte 159963
wickelt 159958
sinken 159944
asten 159900
ash@@ 159878
Weihnachtsmarkt 159877
Bad@@ 159876
zurückkehren 159870
fang 159869
beschrän@@ 159855
Stat@@ 159828
Paderborn 159814
verhe@@ 159792
Spiels 159787
aufwen@@ 159760
Krieges 159753
Zau@@ 159669
fristig 159666
Offensiv@@ 159634
atz@@ 159627
eröffnete 159619
sieg@@ 159589
Zivilisten 159584
berechtigt 159576
Inse@@ 159570
kla@@ 159559
Bayerischen 159548
amti@@ 159540
Bemühungen 159531
Präsidenten@@ 159526
langjährigen 159518
Volley@@ 159502
weisungen 159487
frauen 159460
niedrigen 159460
Versprechen 159440
hauptsächlich 159418
Komple@@ 159405
Grundsätzlich 159392
Unabhängigkeit 159385
serv@@ 159377
Part@@ 159375
Südafrika 159372
Van 159360
Vorstandschef 159357
urs@@ 159341
wundert 159298
rou@@ 159265
Theat@@ 159262
ill 159221
Lewis 159203
Höhen@@ 159199
Dokumente 159173
voraus@@ 159167
Abschaffung 159159
AT@@ 159130
Hop@@ 159128
Europameister@@ 159128
grau@@ 159122
schwierige 159111
vern@@ 159104
mächtig 159074
Innen 159074
Besetzung 159056
Website 159016
Ausländer 159007
Olaf 159003
Tübingen 158974
anda 158970
laub@@ 158962
schicht 158911
Geist@@ 158868
ral 158867
bean@@ 158850
Arme 158828
Bilder@@ 158820
begleiten 158817
glaub@@ 158798
pern 158781
50. 158754
versich@@ 158750
Herrn 158746
sätzen 158742
gezahlt 158739
Birgit 158733
Verbrauchersch@@ 158718
Bedrohung 158702
Pfor@@ 158700
Zurück@@ 158688
Kapital 158666
hf@@ 158646
ö 158628
Boss 158617
Ring@@ 158608
erhöh@@ 158607
begrüßen 158577
nisch 158559
Lutz 158556
aufeinander 158528
entfer@@ 158518
dner 158501
orten 158495
Öz@@ 158430
-Zeitung 158424
Mosk@@ 158423
strafen 158418
cho@@ 158407
schwarz@@ 158304
skir@@ 158302
ürz@@ 158277
Mails 158238
angeht 158206
Fortsetzung 158200
Dres@@ 158193
entieren 158178
rüger 158174
kalt 158157
Versicherung 158146
mord 158119
CD 158103
periode 158102
Fun@@ 158090
fassung 158082
bst 158064
Sonn@@ 158063
zit@@ 158054
Helden 158017
gasse 158001
Gegenwart 158000
una 157977
blei@@ 157963
Mod@@ 157930
listen 157911
Besser@@ 157889
Arten 157881
Prü@@ 157879
Festnahme 157854
erweitert 157848
Erlebnis 157848
Ereignis 157844
Pierre 157840
Halbjahr 157822
eröff@@ 157819
rige 157801
Adam 157787
uch 157775
schke 157771
Kindergarten@@ 157765
Blumen 157722
fotografi@@ 157722
spreche 157716
giert 157709
ziehung 157692
Vertrau@@ 157688
chtete 157684
direkte 157683
genannte 157627
tender 157626
kehrte 157616
Forum 157596
toll@@ 157576
asi 157557
Regisse@@ 157544
Daran 157536
warnen 157530
endor@@ 157523
volles 157521
finger 157512
sprogramm 157502
langfri@@ 157481
entri@@ 157461
Willi 157458
Friedhof 157450
Polizist 157432
Scholz 157392
Mediziner 157373
erledigt 157358
mär@@ 157357
Verfassungsschutz 157348
Sanierungs@@ 157339
Einbruch 157334
Sexu@@ 157260
pal@@ 157242
zeichnung 157204
stabil 157153
Ausstattung 157113
jenseits 157103
blicke 157094
Abenteuer 157070
Muskel@@ 157059
kümmert 157035
ula 157028
schenko 157010
Internetseite 157005
ms@@ 156997
Merkels 156985
Kapaz@@ 156977
W. 156912
Krim 156867
IC@@ 156815
Beschäftigung 156810
system@@ 156755
Brandt 156741
menschlichen 156719
Geheimnis 156710
Akademie 156690
Symb@@ 156675
09@@ 156636
Blu@@ 156582
Cann@@ 156580
zustande 156574
Schmi@@ 156568
Abstie@@ 156550
Teu@@ 156549
bol@@ 156481
LINKEN 156472
Filmen 156461
Gerü@@ 156437
Rin@@ 156413
Nation 156410
Ankara 156369
Interessenten 156365
Sex@@ 156350
bestehe 156350
regionalen 156344
Kapit@@ 156327
Instrument 156312
schöpf@@ 156289
Gebäudes 156252
Regelungen 156245
oria 156230
halbes 156220
Brust 156203
Dun@@ 156161
Glan@@ 156133
Tum@@ 156114
Hut 156112
Str@@ 156090
stellern 156089
Aufnahmen 156089
handels@@ 156080
egi@@ 156073
Legende 156057
Zins@@ 156052
telefon@@ 156036
Hül@@ 156019
platz@@ 156004
erkennt 156001
Ay@@ 155997
Leih@@ 155997
Klassi@@ 155995
Fab@@ 155978
Kindes 155943
Ali 155931
Lothar 155923
erfolgte 155921
Schätzungen 155909
leiden@@ 155902
Kabinett 155902
Beck@@ 155897
strecken 155896
anlässlich 155880
Rum@@ 155845
Formen 155842
bitten 155835
han@@ 155835
rollen 155830
mein@@ 155801
Mik@@ 155792
schätzung 155778
ept 155767
Wild 155761
unglaub@@ 155743
DS 155734
Zufall 155720
Renate 155706
regelung 155703
Mut@@ 155698
ennung 155691
intel@@ 155638
Mul@@ 155623
ye 155606
Empfang 155601
anc@@ 155590
Regim@@ 155589
Rub@@ 155569
plätzen 155563
Mitternacht 155540
Verantwor@@ 155538
Erkenntnis 155528
wichtiges 155526
Würzburg 155522
Beifall 155514
Sicherheitskräfte 155428
Busse 155426
kündigten 155425
stärke 155417
punkt@@ 155408
antwortet 155390
Airbus 155384
Hinsicht 155378
haber 155344
Konflikte 155337
Bünd@@ 155318
erwarteten 155310
Erkenntnissen 155308
spezielle 155306
beschrieben 155287
Autoh@@ 155286
Queen 155202
flich 155169
Staatsanwalt 155156
lob@@ 155135
unmittel@@ 155126
erleichtert 155120
Illu@@ 155101
RWE 155075
bildungs@@ 155040
Android 155039
mah@@ 155035
tnis 155018
Naturschutz@@ 154995
Sonst 154962
weisung 154961
Existenz 154929
nieder 154925
Sekunde 154913
ftiger 154906
klassische 154902
Proble@@ 154885
Ansatz 154878
Arbeitsplatz 154872
riffen 154852
OB 154845
weich@@ 154835
australi@@ 154825
Nachwuch@@ 154805
empfangen 154792
Bitte 154782
Marken@@ 154782
Neul@@ 154736
Nachfolge 154735
infrage 154734
Flügel 154718
lar@@ 154707
mess@@ 154698
altern@@ 154693
Palästinenser 154667
cking 154659
Vaters 154636
hagen 154620
gast 154595
stab 154580
scheibe 154573
ruppen 154564
küste 154517
Geschwi@@ 154516
Realschule 154511
Sha@@ 154501
Müll@@ 154486
Beate 154476
Müll 154466
Vorbereitungen 154450
überprüft 154445
tes@@ 154437
Lindner 154429
Jagd@@ 154418
position@@ 154398
stattung 154394
gesundheits@@ 154393
Neun@@ 154383
kriminal@@ 154381
html 154365
onik 154351
nr@@ 154345
popul@@ 154328
besorgt 154313
40@@ 154305
Hak@@ 154275
esp@@ 154274
Mohammed 154230
trugen 154149
ita 154142
Kooper@@ 154129
Opti@@ 154098
ye@@ 154090
Belie@@ 154083
feststellen 154033
nahen 154024
medizinische 154010
kunst 154006
ünst@@ 153976
dei 153976
gemä@@ 153946
eventuell 153936
nung@@ 153904
verblei@@ 153898
skur@@ 153885
besuchte 153871
Rummenigge 153846
ulieren 153836
steiner 153797
vent 153792
Konzentration 153787
quer 153763
Nar@@ 153759
pflege 153759
Liebes@@ 153751
amerika 153750
fahrzeuge 153732
Ulrike 153710
erfolg 153708
globalen 153692
Strat@@ 153684
Toni 153678
geg@@ 153663
Sascha 153627
Kriterien 153623
Politikern 153617
namen 153602
sebene 153600
verheiratet 153587
angebracht 153564
abe 153552
HK 153542
deutete 153540
Andererseits 153493
stattfindet 153492
geschieht 153490
Religion 153489
Nazi 153416
Automobil@@ 153344
öl 153328
halte@@ 153325
Konkur@@ 153308
New@@ 153304
Anschläge 153285
wussten 153275
Freundschaft 153268
Para@@ 153251
1993 153247
Freiheits@@ 153244
Häft@@ 153216
Schmu@@ 153172
Sah@@ 153165
Seni@@ 153144
tollen 153133
Bundeslig@@ 153131
wachsenden 153131
bezahl@@ 153105
Strafraum 153040
mitte 153036
Welle 153005
gegn@@ 152992
durchgesetzt 152989
vereine 152983
Autobauer 152981
Loch 152947
abschnitt 152932
Kredite 152920
maligen 152917
Remis 152906
heftigen 152898
Verzö@@ 152897
Ökon@@ 152894
läufe 152886
Abitur 152876
Hinder@@ 152863
gerüstet 152829
Schwimm@@ 152824
saßen 152818
Mitarbei@@ 152777
geführten 152723
andererseits 152709
Kurse 152707
heimlich 152698
King 152695
versprochen 152684
Wand@@ 152674
Afri@@ 152635
verbrauch 152592
einfachen 152579
Boateng 152575
gi 152568
orisch 152543
Laune 152522
Kerber 152521
träglich 152487
konkur@@ 152474
Nachfol@@ 152452
verfügen 152441
etz 152427
bliothek 152426
Schützen 152402
Küsten@@ 152382
Kompon@@ 152364
meistens 152352
DF@@ 152308
vorab 152304
Gewinne 152255
ausländische 152253
Priv@@ 152252
nes 152248
chener 152236
probleme 152220
Griechen 152191
Fähr@@ 152190
weis@@ 152178
Histori@@ 152177
eindrucks@@ 152175
Staatschef 152136
Leyen 152126
redet 152122
Frist 152110
Buß@@ 152109
dortigen 152108
Bewusstsein 152080
Deren 152079
skonz@@ 152066
sk 152058
V. 152057
überprüfen 152054
geeinigt 152042
stars 152013
ödie 152009
Burk@@ 151992
kische 151968
günstig@@ 151967
vorsichtig 151964
verun@@ 151959
aufsicht 151953
Wasch@@ 151911
edi 151911
siebten 151839
bilanz 151836
anony@@ 151806
eich@@ 151803
schmu@@ 151782
Überzeugung 151779
coach 151765
inier 151749
Beispiele 151729
Py@@ 151696
glau@@ 151658
Neuzugang 151653
don@@ 151645
bestehende 151633
ausgetragen 151617
Zumal 151601
gewer@@ 151601
ören 151580
Spieler@@ 151545
dosten 151542
gni@@ 151495
BR@@ 151479
Schmerz@@ 151476
christ@@ 151458
Punkt@@ 151455
ernde 151445
entschei@@ 151420
laut@@ 151398
Hammer 151385
Druck@@ 151384
schnitte 151379
jf 151375
betra@@ 151372
Bud@@ 151352
Wunsch@@ 151347
duell 151344
Gefän@@ 151336
Pauli 151327
überlassen 151305
Gär@@ 151273
steigende 151264
landschaft 151194
Hack@@ 151151
Entwick@@ 151141
Lar@@ 151138
garantiert 151126
Mini@@ 151110
Rohr@@ 151110
drohte 150991
Promin@@ 150989
anien 150987
aufbau 150974
greif@@ 150966
eineinhalb 150952
bewusstsein 150946
Schlüssel 150933
Hartmann 150847
betreu@@ 150831
Kindheit 150793
Insbesondere 150791
verdäch@@ 150787
Verteidigungsminister 150763
herz@@ 150761
Angelegenheit 150728
nutzten 150716
Big 150664
tisches 150640
angemessen 150628
lus 150592
zentren 150583
bahnen 150579
Legi@@ 150575
lam@@ 150559
Sympath@@ 150544
ehemaliger 150540
dankbar 150533
alkoh@@ 150523
ky 150511
lobt 150499
hast 150490
eröffnen 150486
Model 150484
seitens 150480
Daraufhin 150479
kandidaten 150466
Nau@@ 150417
sta 150399
korrigi@@ 150392
Note 150388
Anträge 150388
Sponsoren 150373
gesto@@ 150370
Telefonnummer 150337
05@@ 150334
physi@@ 150306
Kant@@ 150304
Verletz@@ 150276
Gän@@ 150267
gal@@ 150266
Bastian 150221
Interessen@@ 150212
Nicole 150194
zum@@ 150188
weihnach@@ 150180
Heynckes 150178
Rassismus 150161
Zeuge 150151
packen 150143
thin 150143
emann 150129
Null 150118
Gur@@ 150090
Bargeld 150086
Notenbank 150054
Konjunktur 150050
Offizi@@ 150025
Plänen 150018
schwert 150010
passen@@ 149964
Trä@@ 149963
entspannt 149944
Serbien 149938
Asp@@ 149905
ó@@ 149879
ris 149832
verfü@@ 149828
Motiv 149822
mitzu@@ 149801
digitale 149782
amp 149774
Autobahn@@ 149771
cc@@ 149759
Gefühle 149726
feuer@@ 149722
Stock 149715
zugelassen 149683
higen 149662
Nahles 149646
bedankte 149645
Fac@@ 149642
Hafen@@ 149634
singt 149621
Pfing@@ 149619
Ticket 149613
11,@@ 149574
bevölk@@ 149564
spo@@ 149523
Strö@@ 149509
Linden@@ 149493
Diplom@@ 149492
imago 149477
ologi@@ 149476
jährlichen 149466
Jer@@ 149463
steam 149458
unt 149455
erforder@@ 149448
außen@@ 149442
Pend@@ 149427
Geschichts@@ 149422
Förderverein 149413
val 149396
Auffassung 149386
Saf@@ 149385
then 149351
Bundesligisten 149349
Seinen 149344
Singen 149303
Kapitel 149302
teres 149283
auto@@ 149266
Mittelmeer 149253
dan 149236
Verhandlung@@ 149235
Beton@@ 149208
Kino@@ 149183
Polizeibe@@ 149167
Besucher@@ 149158
derzeitigen 149144
spur 149079
stellers 149069
anwalt 149058
Blumen@@ 149057
kter 149037
Münster@@ 149029
digkeiten 149019
Kohl 148985
ausbildung 148960
Franken@@ 148948
amte 148945
Friedrichsha@@ 148931
verzö@@ 148929
Insolvenz 148910
Bundesstraße 148868
antritt 148845
risch 148819
merken 148811
Jubil@@ 148807
seg@@ 148802
gewünscht 148800
hy@@ 148754
Argument 148746
cia 148733
firmen 148731
Tests 148731
Proben 148715
vermehr@@ 148695
Dat@@ 148633
Glaub@@ 148551
weckt 148546
palästinen@@ 148538
bemerkt 148533
Stür@@ 148521
verkündete 148507
Gef@@ 148498
mahnte 148477
kos@@ 148474
ml 148452
fahrzeug 148409
ierenden 148402
Auflagen 148390
Rechtsextre@@ 148386
schrieben 148356
Gy@@ 148335
Christen 148279
weh@@ 148269
pfi@@ 148257
Standards 148256
traditionelle 148243
hum@@ 148204
dd@@ 148172
gehenden 148170
kirch@@ 148167
unterbrochen 148164
Schülerinnen 148162
ergibt 148115
National 148115
dichte 148114
Streit@@ 148109
tismus 148100
Detail 148099
geru@@ 148089
inken 148068
seu@@ 148063
Genehmigung 148061
klat@@ 148038
begrenzt 147981
NBA 147975
präsident 147972
Bamberg 147962
Tokio 147943
Missbrauch 147936
Auflösung 147933
heimische 147925
weltweiten 147913
utt 147910
Nat@@ 147909
auseinander 147903
Virus 147894
Arnold 147892
pfei@@ 147868
deh@@ 147836
zählte 147814
österreich 147813
ard@@ 147777
Tari@@ 147774
dafri@@ 147760
Scheitern 147757
ind 147753
Katrin 147733
arab@@ 147728
Fei@@ 147719
Staff@@ 147663
You@@ 147660
Trop@@ 147650
sions@@ 147648
astrop@@ 147644
Ep@@ 147624
Satelli@@ 147563
musik@@ 147555
lischen 147538
Unentschieden 147515
Unfälle 147453
Horn@@ 147427
sieben@@ 147419
heran 147410
Handeln 147405
gebern 147375
esch@@ 147322
ffene 147317
auftakt 147310
Tem@@ 147310
Dikt@@ 147304
schaffung 147296
einziger 147283
kehr 147260
Stär@@ 147204
Lehre 147194
internen 147185
Schöne@@ 147181
förder@@ 147171
änd@@ 147169
tha 147145
lätze 147142
sheit 147138
respe@@ 147126
Forst@@ 147112
tatsäch@@ 147095
Hobby 147095
brun@@ 147087
Apps 147087
Hass 147081
Pos@@ 147063
ln@@ 147050
Kompli@@ 147023
Kroatien 146998
Ruh@@ 146989
Häusern 146968
nehmer@@ 146960
Zimmer@@ 146949
beschloss 146948
Archi@@ 146932
Krankheiten 146905
niederlage 146904
ärer 146873
unabhängi@@ 146873
Sicher 146865
Dei@@ 146839
Roman@@ 146822
anhand 146813
schmerzen 146809
militärischen 146808
verdächtige 146805
Tal 146783
Mensch@@ 146775
gewissen 146769
Geschmack 146753
studierte 146738
gewählten 146731
Pon@@ 146646
gelben 146640
stitu@@ 146626
Standorte 146621
öhnt 146610
Versorgungs@@ 146608
lokal 146577
Verhandlung 146537
abgesehen 146533
gewähr@@ 146525
Salzburger 146509
Eric 146502
militärische 146493
verord@@ 146487
Reifen 146477
Geheimdienst 146472
zahlte 146464
erfreu@@ 146464
Pegida 146430
Raketen 146400
1,6 146400
seither 146383
Jun@@ 146379
unbekannte 146378
sportlich 146369
lauter 146365
rig 146348
telef@@ 146334
Flüchtlingsk@@ 146303
ket@@ 146256
dad 146242
schsprach@@ 146236
erwischt 146224
skeptisch 146196
stock 146179
tenburg 146166
Kameras 146133
Macron 146110
Kontra@@ 146108
rad@@ 146103
dorthin 146088
sien 146088
Ausstieg 146070
maschinen 146065
Windows 146056
fie@@ 146036
Zahlungs@@ 146032
Jü@@ 146028
enes 146017
ull@@ 146010
Reiter 145999
Proje@@ 145988
erfuhr 145984
verfassungs@@ 145972
Nicht@@ 145948
vorange@@ 145935
ägyp@@ 145911
Kabar@@ 145908
Blau 145903
Engel 145889
nit@@ 145883
Ablehnung 145847
Kämpfe 145843
bezüglich 145842
Ausgang 145828
zitierte 145806
isa 145795
verraten 145780
strau@@ 145769
atisch 145764
Spring@@ 145733
heiße 145707
Bundesländer 145701
över 145683
Hart@@ 145677
Wahn@@ 145669
veranstaltet 145665
Regionalliga 145652
Kliniken 145651
Klinikum 145640
ago 145623
Widerspruch 145617
Bomben@@ 145614
sparteien 145608
Träger 145605
Hubert 145601
verdächtigen 145593
scha 145570
Medizin@@ 145546
kanadi@@ 145520
Konstru@@ 145483
meln 145481
ppchen 145452
gesetzes 145438
nächstes 145406
formation 145394
befragt 145379
vö@@ 145370
Ausmaß 145364
Verbraucher@@ 145338
gehöri@@ 145333
Vorpommern 145330
kowski 145326
belohnt 145322
Raub@@ 145321
Richt@@ 145319
Dutzende 145299
seitige 145297
veranstaltungen 145282
Bewertung 145270
zellen 145262
Jerusalem 145234
erhältlich 145204
Neuwahlen 145201
eingeschränkt 145185
mend 145181
Christopher 145173
Identi@@ 145169
spür@@ 145156
besonderer 145151
kas@@ 145149
aufkommen 145148
Fau@@ 145142
top 145101
Führung@@ 145099
Bewerbung 145074
Quellen 145071
stärk@@ 145032
älteste 144998
Nomini@@ 144948
sichergestellt 144932
jung 144920
1.0@@ 144914
Krieg@@ 144887
wissenschaftlichen 144876
Mangel 144862
Übersicht 144856
pfer@@ 144847
alisierte 144845
Feuerwehren 144818
Rumänien 144816
lieferte 144815
Leb@@ 144802
Melo@@ 144800
08@@ 144800
fans 144792
Liz@@ 144769
Zeitschrift 144768
Straft@@ 144763
kontrolli@@ 144762
ungewöhnlich 144743
schrift@@ 144726
Nad@@ 144720
Hamas 144707
Hard@@ 144682
versetzt 144665
verhin@@ 144650
troffen 144639
Treff@@ 144622
sität 144584
schwung 144583
fühlte 144551
Ih@@ 144537
füllt 144530
Analysten 144525
Ringen 144514
Partnerschaft 144435
erzielten 144415
Pist@@ 144391
Anja 144382
cs 144374
Kel@@ 144352
Karri@@ 144340
stür 144336
aps 144330
Wär@@ 144321
Dol@@ 144313
gelegten 144297
afgh@@ 144274
19,@@ 144266
Rostock 144262
bat@@ 144217
dazu@@ 144202
ungspolitik 144200
anstehenden 144189
liegende 144185
ate@@ 144181
besitz 144166
flüge 144158
Ministerin 144150
erteilt 144124
einrichtungen 144121
UEFA 144120
URL 144109
Bekann@@ 144105
ermitteln 144097
Ap@@ 144094
gebung 144078
kreuz 144066
Cu@@ 144062
DS@@ 144060
schlugen 144047
kunst@@ 144045
Armen 144020
Katal@@ 144009
teils@@ 144007
Laut@@ 143996
othe@@ 143989
allen@@ 143985
Erdbeben 143977
gl 143921
wanderer 143886
Vorsicht 143880
stelligen 143878
sprüche 143859
Enttäuschung 143857
Fraktionen 143841
mun@@ 143818
Inseln 143814
alien 143806
Seri@@ 143804
r. 143784
tragung 143746
grei@@ 143738
Paket 143730
oberen 143686
Kinder- 143685
Sicht@@ 143679
Ähn@@ 143662
persön@@ 143641
höchstens 143630
freun@@ 143615
berechtigten 143601
Grunde 143600
Pakistan 143593
agert 143586
lub 143581
gez@@ 143574
Holl@@ 143571
Cli@@ 143562
tägigen 143557
lernt 143556
halter 143541
tigste 143517
kurse 143511
turm 143505
Leichen 143482
Kh@@ 143459
17,@@ 143450
ekte 143447
aufgaben 143445
läne 143436
Fahrgäste 143426
Beu@@ 143422
Nutzen 143414
Referendum 143413
treu 143403
Moderni@@ 143402
regionale 143382
produzieren 143376
Nä@@ 143334
mitz@@ 143331
treffer 143320
besich@@ 143290
Prix 143287
zheim 143275
1,3 143272
Vorstoß 143269
renom@@ 143263
Krankenkassen 143244
win 143241
Gil@@ 143236
jdi@@ 143225
befreien 143206
Museums@@ 143193
normale 143135
Gedäch@@ 143115
beiträge 143101
treff@@ 143085
Augu@@ 143080
fliegt 143054
Marcus 143039
schlafen 143029
täts@@ 143010
kost@@ 142993
appt 142983
mobil@@ 142958
Viz@@ 142955
beigetragen 142938
Schuhe 142935
rap@@ 142914
Obst@@ 142902
erfreut 142881
Berlusconi 142856
Lediglich 142809
gt@@ 142800
Main@@ 142795
eingegangen 142793
xc@@ 142780
sendung 142777
registri@@ 142768
TA 142765
becken 142753
Veranstaltungs@@ 142747
Auftakt@@ 142715
strich 142710
nominiert 142691
inspe@@ 142687
France 142679
Klubs 142608
eigentliche 142592
belei@@ 142562
unteren 142553
Lind@@ 142551
Gitarre 142547
Bar 142537
auern 142533
verhält@@ 142529
opp 142519
speziellen 142512
Fleisch@@ 142506
Lehrerin 142501
inner 142495
Hur@@ 142457
flicht 142409
18.30 142406
tschafts@@ 142404
Schick@@ 142395
Einstieg 142390
brasili@@ 142366
drit@@ 142363
Immobilien 142345
Enthül@@ 142333
Olympiasieger 142313
hofs 142297
13,@@ 142293
Ohren 142278
parks 142216
Vielzahl 142212
DJK 142211
Bron@@ 142210
krank@@ 142198
ürzt 142124
Ankunft 142116
Wobei 142114
ukrainischen 142088
zwöl@@ 142080
bezieh@@ 142064
Neg@@ 142063
zustimmen 142059
Europäer 142037
Versuche 142000
Untersuchungshaft 141984
Sätze 141973
bücher 141972
Turm 141971
ez 141963
Einheiten 141960
olymp@@ 141958
Anmeldung 141928
olle 141918
abel 141881
Lun@@ 141875
Restaurants 141870
GH 141855
histori@@ 141850
schale 141814
diverse 141807
Börsen 141763
Ris@@ 141734
Bundeskanz@@ 141730
jan 141714
ty@@ 141700
schickte 141699
Brot 141682
ierungen 141681
verhandeln 141680
Jubiläums@@ 141668
s- 141666
Beschäf@@ 141660
menschliche 141657
Stadtwerke 141622
sischer 141616
Allgemeine 141601
Meß@@ 141535
otz 141530
Ulm 141517
Hubschrauber 141513
Wunder@@ 141505
aussieht 141503
bing 141486
Koch@@ 141473
umsetzen 141471
Hofmann 141461
derzei@@ 141425
einer@@ 141417
belastung 141411
möglich@@ 141396
verliehen 141379
schwach 141374
Graz 141349
nommen 141345
gelebt 141331
polnischen 141329
Rauch 141314
zumeist 141309
Eier 141300
entscheid 141275
Spann@@ 141269
Multi@@ 141268
unzäh@@ 141262
Kairo 141251
cf@@ 141236
definitiv 141228
DiePresse.com 141211
Debatten 141205
ausländischen 141203
Films 141182
lah@@ 141176
sektor 141174
Gestern 141153
Lohn 141151
Erkrankungen 141137
opf 141115
akade@@ 141112
alom 141106
versteckt 141093
Lat@@ 141055
öß@@ 141047
Weniger 141025
chancen 141023
Wöl@@ 141015
tett 141008
Katja 140950
fehl@@ 140921
Erfolg@@ 140889
ativer 140871
Gründungs@@ 140869
Überwachung 140868
Weiße 140865
Äm@@ 140852
Geburts@@ 140847
Stabilität 140840
einschließlich 140830
Box@@ 140791
brauchte 140786
disch 140736
Transfer@@ 140733
bige 140689
Feder@@ 140678
Zen@@ 140639
rüstung 140635
Jahn 140633
bewahren 140629
ys@@ 140620
Cottbus 140584
schritt@@ 140575
politisches 140560
Spani@@ 140537
paket 140528
chert 140521
bege@@ 140501
Übernach@@ 140481
dnis 140475
Grill@@ 140473
dl@@ 140446
Bewegungen 140422
heu@@ 140401
Nerven 140399
gungen 140376
Pep 140357
profitiert 140352
nehm@@ 140338
uliert 140305
Schwung 140301
planung 140296
Finanzen 140284
beeindruckt 140244
Hausherren 140233
Paläst@@ 140231
Führerschein 140216
Gesp@@ 140214
integri@@ 140210
sitzer 140174
taucht 140169
Slo@@ 140159
Migration 140139
fortsetzen 140134
Streiks 140122
stung 140120
Nier@@ 140093
Orienti@@ 140086
ereignete 140073
kollege 140072
Werkstatt 140057
esi@@ 140054
Oberliga 140053
hänge 140045
Rivalen 140024
gehöre 140009
Autor@@ 139996
reist 139984
bestä@@ 139974
jemanden 139969
Schein@@ 139948
beendete 139913
sorg@@ 139911
Jes@@ 139884
oto@@ 139851
vertra@@ 139837
kturen 139836
käme 139832
ausen 139824
körper 139814
gerau@@ 139768
Kolum@@ 139761
Kaffe@@ 139760
turen 139755
bereit@@ 139739
gewusst 139713
gründer 139679
Semin@@ 139668
fängt 139656
sungs@@ 139644
Mengen 139634
fige 139628
sever@@ 139628
fizierung 139623
geregt 139609
Tunnel 139604
verließ 139602
osla@@ 139570
angefangen 139550
Somit 139540
6000 139535
tausende 139502
H. 139433
dringen 139423
Militä@@ 139379
verkün@@ 139376
WG 139374
amm 139368
Geduld 139361
zentrums 139336
unds 139334
fens 139325
benutzt 139309
20.000 139277
Juncker 139262
Gerüchte 139242
Sing@@ 139214
ständigkeit 139188
Mainzer 139165
smä@@ 139149
qualifiziert 139147
Kohlen@@ 139098
gefüllt 139073
freier 139071
verschwinden 139049
verwenden 139025
252 139022
chteten 139008
Stoff 139006
Louis 139001
Jaz@@ 138990
BS 138986
sts 138978
Aktu@@ 138975
geist 138919
Charles 138918
Samsung 138911
Küchen@@ 138898
beziff@@ 138859
Roger 138854
dat 138832
inischen 138826
Media 138816
verdanken 138815
Zusätzlich 138798
Diak@@ 138781
stellvertretender 138775
Gymnasi@@ 138763
qual@@ 138750
kovic 138750
Gomez 138737
Abteilungs@@ 138707
lokale 138695
neuesten 138686
Hochwasser 138674
Meeres@@ 138659
Abbau 138653
Kohle@@ 138648
jahre 138628
engagieren 138608
wirksam 138586
jahre@@ 138562
meist@@ 138557
Hummels 138553
90er 138545
exp@@ 138545
Strah@@ 138534
Pel@@ 138531
empfehlen 138525
vollkommen 138454
vorgeschlagen 138421
Schuld@@ 138420
Zimmermann 138414
Event 138380
angesagt 138378
Lehmann 138377
ünktlich 138336
parallel 138333
litz 138295
Abfahrt 138284
reine 138267
weitergehen 138261
Jänner 138254
Egal 138190
enlos 138170
uts 138161
Denkmal@@ 138157
Kei@@ 138148
gesetzten 138139
Bahnen 138136
Zeich@@ 138125
meister@@ 138112
.. 138100
Gesang 138099
überschrei@@ 138098
Begegnungen 138095
Dokumenten 138075
Fluss 138072
Fürth 138064
Gebieten 138063
Anwälte 138035
bestraft 137951
Symbol 137936
ief 137929
box 137893
Einbrecher 137886
thaus 137884
gerschaft 137882
kreis@@ 137881
vergeblich 137879
cherung 137859
rigen 137851
dre 137837
Mathemati@@ 137791
stimme 137774
Hend@@ 137772
pot@@ 137763
fran@@ 137745
übergreif@@ 137722
Reus 137705
Hitz@@ 137694
Erwar@@ 137687
Rob@@ 137679
Zuhause 137676
low 137672
Bischof 137671
perfe@@ 137631
rett@@ 137621
glie@@ 137604
schwem@@ 137554
mmern 137544
Wupper@@ 137542
spopuli@@ 137542
Rezep@@ 137522
sofor@@ 137513
kus@@ 137489
Motivation 137474
verbinden 137463
heil@@ 137433
Korrup@@ 137426
Stadtr@@ 137421
pfer 137414
inspiri@@ 137364
operiert 137334
Kok@@ 137318
blut@@ 137310
lockt 137298
repar@@ 137287
gesundhei@@ 137267
organisationen 137263
gigan@@ 137258
Verdächtigen 137251
aktivi@@ 137249
Studio 137246
ursache 137234
schlimm 137203
Innenministerium 137202
katholische 137193
sober@@ 137192
einz@@ 137190
Fed 137188
Überlegungen 137162
Absicht 137111
verni@@ 137106
Gelän@@ 137089
häufig@@ 137075
setze 137014
erig 137012
Fertig@@ 137010
Feuerwehrleute 137010
erreichten 136982
Qualitäts@@ 136980
vermuten 136972
daheim 136956
schlu@@ 136939
ror@@ 136929
Skep@@ 136923
Weltkrie@@ 136910
erkannte 136903
Stam@@ 136872
One 136864
verhand@@ 136858
sprang 136843
stock@@ 136818
eigens 136811
diente 136810
Völker@@ 136784
Bürgerkrieg 136732
kritisieren 136729
Uns 136724
wirt 136684
Fast@@ 136683
bir@@ 136682
Spende 136670
benachbarten 136659
Steuerzahler 136650
gesetzlich 136641
Schwaben 136637
Verkehrsunfall 136563
namik 136560
begeister@@ 136544
erfü@@ 136539
vertraut 136537
Gesprächs@@ 136512
Urlauber 136505
untersuchen 136500
seinerzeit 136493
han 136486
ilfe 136484
erei@@ 136474
half 136461
Künstler@@ 136454
pf 136443
otz@@ 136395
Urlau@@ 136372
Ric@@ 136362
wünschte 136351
unverändert 136350
seitig 136332
ürzten 136321
afrikanischen 136307
Kicker 136303
Bestim@@ 136256
erd 136253
Gros@@ 136237
feuerwehr 136226
verschiedener 136223
bewerten 136205
intern 136165
elli 136159
Dessen 136154
priv@@ 136148
undene 136137
R. 136132
sexuellen 136116
ümer 136109
Bodensee 136098
kopf 136077
trenn@@ 136065
ckel 136062
last@@ 136041
komb@@ 136033
böse 136032
Jakob 136020
fels 136014
Horn 136008
Gewalt@@ 135997
dach@@ 135980
steine 135978
prüft 135968
sink@@ 135951
menge 135947
drücke 135935
schickt 135928
Wut 135908
stech@@ 135901
verteidigte 135893
Rückspiel 135869
benötigen 135865
Henn@@ 135860
Notwendigkeit 135855
funk 135851
verschärft 135845
gebra@@ 135843
Kub@@ 135842
geist@@ 135837
Freun@@ 135771
Jesus 135748
lern@@ 135746
ied 135745
biert 135720
Pfe@@ 135684
gereicht 135678
proben 135655
Akten 135646
Gesichter 135643
igungs@@ 135627
Devi@@ 135615
benannt 135597
Handwerk 135583
Terrormiliz 135579
ktiv@@ 135577
amerik@@ 135567
Genau@@ 135557
sauer 135555
witsch 135473
endem 135463
medizinischen 135448
ari 135447
Andre@@ 135446
uz 135405
verlief 135394
bewältigen 135393
Golf@@ 135385
konfli@@ 135372
oftmals 135362
zwischenzeitlich 135351
brennen 135349
Durchbruch 135348
fahn@@ 135344
gelbe 135342
bekräftigte 135340
tschaft 135330
ovi@@ 135327
Dingen 135308
04@@ 135295
Leon 135281
schlags 135279
warm 135258
bör@@ 135242
schlüssel@@ 135184
wald@@ 135183
chenen 135179
kandi@@ 135178
Sammel@@ 135170
Til@@ 135166
begangen 135162
16,@@ 135149
Jagd 135143
erheblichen 135134
Gladbach 135125
Journalist@@ 135122
Anschlägen 135120
VP 135118
konfrontiert 135112
autos 135087
Begleitung 135087
meisterin 135075
Besonderes 135070
ehrt 135026
eingereicht 135002
Städ@@ 134981
Gregor 134963
kommiss@@ 134951
sperren 134945
allgemeinen 134943
Nas@@ 134913
nachhaltig 134907
TV@@ 134903
Amerikan@@ 134896
Kanzler 134883
bay@@ 134871
besitzen 134844
ses@@ 134840
Bestand 134797
male 134782
stellvertre@@ 134780
Neckar 134767
traurig 134752
pein@@ 134720
athlon 134718
Webseite 134688
gebirge 134679
Hals 134672
Vizepräsident 134661
Dunkel@@ 134661
ehrlich 134655
dunklen 134637
gerinnen 134629
spitz@@ 134612
verur@@ 134594
Zo@@ 134589
sproble@@ 134576
Raketen@@ 134565
städten 134563
einziges 134545
Politikerin 134540
Klo@@ 134539
abili@@ 134526
Mig@@ 134513
fäh@@ 134490
SW@@ 134463
Löhne 134449
Krist@@ 134437
umge@@ 134430
geschäfte 134399
meines 134392
Konsequenz 134348
schrump@@ 134345
kaner 134342
ware 134328
Gan@@ 134318
hessischen 134307
gewechselt 134300
Bundesrat 134294
scheine 134293
erlebte 134276
besucher 134268
erneuten 134262
Treffern 134254
glän@@ 134247
bekanntlich 134243
Islamischer 134236
icht 134235
takt 134231
bemerkte 134183
tanz 134157
stage 134140
Lang 134111
finanzierung 134100
Koalitionsvertrag 134099
Räumen 134092
Bast@@ 134084
Kunsth@@ 134063
zweieinhalb 134059
nom@@ 134038
BW 134038
ohl@@ 134016
erwiesen 133985
erarbeitet 133978
Kapelle 133971
DJ 133969
Abstiegsk@@ 133966
u.a. 133956
fühl@@ 133920
cz@@ 133901
radik@@ 133871
begeisterte 133847
60. 133841
vertretung 133835
Wenige 133825
def@@ 133809
zehnten 133799
merz 133792
jahres@@ 133775
beherr@@ 133773
jet@@ 133769
Vf@@ 133755
streffer 133745
Interne@@ 133743
Eröffnungs@@ 133731
erkennbar 133717
stellen@@ 133713
Tele@@ 133707
meldungen 133696
zir@@ 133667
Franziska 133661
islamischen 133649
lokalen 133643
kum 133642
fehle 133633
Galerie 133611
gaben@@ 133600
Teheran 133597
Linien 133597
jenigen 133576
geschütz@@ 133537
Zoo 133524
wachsende 133511
Fon@@ 133494
fron@@ 133490
Meisterschaften 133482
Rüstungs@@ 133474
Ufer 133460
erfolgrei@@ 133450
losung 133441
Koordin@@ 133427
verdienten 133412
Kut@@ 133406
Jahrzeh@@ 133374
entag 133368
monatlich 133367
Rüdiger 133349
Arznei@@ 133343
Konsum@@ 133315
gerückt 133293
BB 133282
knappen 133281
erwartete 133278
schwier@@ 133265
Patient 133257
Universitäten 133245
Öffent@@ 133225
HS 133220
ämp@@ 133193
Supermarkt 133174
Dsch@@ 133174
Neujahr@@ 133169
glicher 133164
Aufruf 133155
fik 133148
gär@@ 133141
Bein@@ 133138
trum 133134
fjo@@ 133133
Schramberg 133129
Kreuzung 133118
bezieht 133091
ktoren 133083
ligkeit 133064
Reiner 133063
Export@@ 133052
IOC 133038
Projekts 133013
Langzeit@@ 133003
erworben 133001
prozess 132994
Fußgänger@@ 132972
Fah@@ 132936
mmel 132930
Ca@@ 132926
offer 132924
wem 132922
Rösler 132917
republi@@ 132888
Stadi@@ 132876
kontrolle 132870
reiches 132867
vorigen 132866
schlimmer 132860
Pfa@@ 132844
erfährt 132844
Kindergärten 132843
beruh@@ 132842
usch 132840
fabrik 132818
Hilfen 132818
skand@@ 132812
heftige 132811
geringe 132802
druckt 132797
Brutto@@ 132793
Begrüß@@ 132770
ärten 132769
Pilot@@ 132757
zierungs@@ 132755
Getränke 132753
Konsu@@ 132753
angestre@@ 132753
Vati@@ 132743
gänger 132713
beeinträch@@ 132684
Universitäts@@ 132684
ernsthaft 132681
kali@@ 132678
daneben 132674
Kandidatur 132663
Black 132638
Che@@ 132617
abbau 132598
geringen 132582
Kompromis@@ 132577
chtum 132566
Dokument@@ 132563
lustig 132559
überschritten 132551
amten 132545
tier 132537
Info 132535
Methode 132532
vorberei@@ 132523
Niedri@@ 132513
dargestellt 132475
angesetzt 132474
motiviert 132462
fi 132461
schutzes 132456
insel 132438
Digitalisierung 132431
Empörung 132425
Australi@@ 132415
spannende 132403
à 132398
Filialen 132397
krieg 132385
§ 132378
Staats- 132368
Momente 132364
Künstlerin 132353
ör 132352
zogenen 132347
etta 132327
kreise 132305
Musical 132297
Schulleiter 132293
aufgeben 132292
weh 132272
Vorder@@ 132269
Nerven@@ 132268
Ausflug 132260
Lücke 132243
aufnahmen 132240
Trauer 132239
rem@@ 132223
zten 132211
pfe 132208
fac@@ 132199
schaftlicher 132173
bestreiten 132155
lationen 132141
kämpften 132116
gutem 132114
Jos@@ 132098
450 132063
entwurf 132039
produkte 132036
Schieds@@ 132035
entsprech@@ 132026
steigerung 132025
bunte 132010
Beam@@ 132005
Marketing 132002
Streich@@ 132001
unterlag 131984
Bestandteil 131983
Airlines 131927
äuft 131917
gelegte 131915
gegenwär@@ 131867
Schuss@@ 131838
zufällig 131822
anfangen 131820
pol 131819
hc@@ 131818
bn@@ 131815
nein 131795
themati@@ 131791
Heimsieg 131765
andelt 131754
15,@@ 131733
Fernseher 131726
Diagnose 131696
enne 131694
lau 131692
wahrgenommen 131683
Akti@@ 131679
Marathon 131669
heirat@@ 131664
sidium 131657
schied 131641
decke 131634
Olden@@ 131628
Struktur 131618
antwortete 131601
Lüb@@ 131595
Torsten 131589
ziele 131584
flucht 131583
Gerichte 131564
Bonner 131531
nü@@ 131519
Heidi 131519
Fußgänger 131489
schreibung 131478
Vergabe 131478
tform 131475
1,4 131462
Hub@@ 131457
Ansprüche 131443
Passanten 131440
Ang@@ 131432
Blatter 131430
Treffpunkt 131430
Monats 131409
andem 131397
winkel 131393
aufzunehmen 131375
Island 131369
ühle 131365
02@@ 131338
verteilen 131337
Zelt 131330
SS 131328
Terrorismus 131317
unterhalten 131311
Mäd@@ 131279
absolvierte 131278
schlagene 131273
büne 131272
Darm@@ 131249
geschäftsführer 131247
Hunderttaus@@ 131245
überlegt 131242
Blick@@ 131228
Reserve 131223
steckte 131211
Joh@@ 131210
Jubel 131207
Gesund@@ 131204
änderung 131200
bedient 131175
Kast@@ 131173
Schuljahr 131158
15.30 131154
behaup@@ 131153
Gegenüber 131151
rde 131118
automati@@ 131108
Argumente 131088
eskali@@ 131059
Martin@@ 131045
landet 131034
Rettungskräfte 131031
interpre@@ 131028
Spre@@ 131010
Unterstützer 130975
tivi@@ 130958
aufbauen 130948
sprodu@@ 130927
kanische 130925
Tipp 130886
70@@ 130862
fried 130836
Play 130793
ement 130782
einsatz@@ 130777
Steine 130776
angemessen@@ 130774
Gala 130764
Kalifornien 130744
selbe 130728
Bruch@@ 130711
träum@@ 130696
eigenem 130691
streng 130687
beach@@ 130673
risiko 130672
stopp@@ 130659
Clo@@ 130650
tiefe 130644
sauber@@ 130616
stunden@@ 130615
Füßen 130609
wahre 130607
Verfolgung 130604
ärzte 130584
trocken 130563
betragen 130561
Rec@@ 130560
Pflan@@ 130546
schießt 130536
kreises 130534
Inklu@@ 130533
beweg@@ 130519
git@@ 130501
metho@@ 130486
messer 130471
Arbeitsp@@ 130454
Di 130429
K.@@ 130413
Produkten 130382
Krimin@@ 130376
Corn@@ 130376
Milch 130368
pfte 130360
Kuba 130336
Stahl 130314
selt 130313
kommens 130307
ations 130299
solidar@@ 130291
Bör@@ 130273
Tsipras 130272
DL@@ 130245
hörte 130209
Zahlung 130209
edr 130197
sieb@@ 130195
sic 130193
Hos@@ 130169
80@@ 130150
verhaftet 130131
Meteor@@ 130126
gänz@@ 130119
Einspar@@ 130118
Schür@@ 130115
Jä@@ 130114
Finger@@ 130112
Phänomen 130097
Chemi@@ 130096
ktur 130089
Gelder 130076
ance 130069
ege 130064
urer 130054
hebt 130051
barte 130035
präsentierten 130032
sessen 130011
bremsen 130007
Fortschritt 130001
maßgeblich 129997
bedenken 129986
sozialistischen 129984
Pferd 129967
Gift@@ 129965
lagen@@ 129962
Theorie 129948
Präsidentin 129938
japanischen 129869
dentin 129862
medizin 129843
zwingen 129825
Turin 129823
Bewegungs@@ 129806
alter@@ 129794
schwar@@ 129784
Air@@ 129752
mitgliedern 129749
sperrt 129742
orchester 129739
Lächeln 129709
erbach 129701
beschluss 129669
Schuster 129666
charak@@ 129661
aket 129659
Bekannt@@ 129659
Lap@@ 129652
kostete 129649
eltern 129643
Pom@@ 129640
dal 129636
begannen 129633
Dum@@ 129626
äle 129623
kasten 129586
ktiver 129569
Dietrich 129549
Zählern 129524
Bla@@ 129494
sisch 129471
Pfosten 129450
tödlichen 129393
attraktiv 129382
Erwin 129378
pas@@ 129350
tendlich 129350
haltungs@@ 129332
wisse 129321
matik 129316
gst 129292
zügen 129270
beschein@@ 129256
schwache 129253
sinkt 129230
iefert 129225
tj@@ 129222
gestri@@ 129215
erstmal 129211
bart 129209
Übung 129182
Av@@ 129178
restlichen 129167
teter 129161
Finnland 129145
neuem 129071
Rai@@ 129047
Dobrindt 129038
Gehirn 129034
erhofft 129027
Wh@@ 129024
Oktober@@ 129017
Aff@@ 129014
és 128986
Preisen 128981
Meer@@ 128913
Last@@ 128884
platzes 128883
ao 128883
schnit@@ 128862
Daniela 128860
Koh@@ 128846
Ruhr@@ 128846
Paare 128833
eler 128812
still 128796
rup@@ 128784
Gemeinderats@@ 128769
Berech@@ 128768
Pav@@ 128755
Charak@@ 128749
Gymnasiums 128740
eg 128739
Erbe 128662
gestuft 128650
Prakti@@ 128637
Nachhal@@ 128588
entra@@ 128537
Original 128535
amin 128534
Gött@@ 128534
Alex@@ 128522
Kreisen 128521
Wahrscheinlichkeit 128520
nehmern 128519
negativ 128507
shaupt@@ 128505
post@@ 128482
Donaueschingen 128479
wettbewer@@ 128474
ehrung 128473
Schüsse 128464
schafften 128463
Kälte 128461
Friedrich@@ 128451
kenntnis 128434
Az 128432
Astron@@ 128399
Niederländer 128392
Themen@@ 128382
zipi@@ 128381
trei@@ 128363
anerkannt 128360
unterscheiden 128357
Sollten 128357
betre@@ 128354
lauten 128353
rhein@@ 128351
Wirtschaftsminister 128350
fänger 128348
UNO 128333
Interviews 128330
gewinn@@ 128328
exper@@ 128322
ns@@ 128303
äume 128288
rund@@ 128274
Pfund 128265
xe@@ 128252
gessen 128249
Verschie@@ 128245
Aufenthalts@@ 128233
fußball 128230
Klavier 128219
esti@@ 128210
Klimawandel 128203
sobald 128198
Bundesfinanz@@ 128192
Zeugen@@ 128166
Update 128166
jüngere 128163
Krone 128158
liebt 128153
leuten 128149
stürzen 128142
arm 128135
Einblick 128133
Obamas 128123
Schnee@@ 128119
flog 128109
Vergleich@@ 128104
fehlende 128089
äumen 128074
scheinlich 128065
Verzicht 128065
monatel@@ 128049
Österreich@@ 128030
Premierminister 128029
Them@@ 128026
Komment@@ 128022
Haar@@ 128013
Flughafen@@ 128007
militä@@ 128005
evangel@@ 127998
Spätestens 127991
gezählt 127988
ttert 127972
Näh@@ 127968
engag@@ 127968
lick 127957
2500 127955
itas 127955
Sehn@@ 127946
echter 127941
Dire@@ 127931
gans 127930
volumen 127926
Kontrah@@ 127924
erschein@@ 127919
Startelf 127910
con@@ 127899
gelassen@@ 127892
Ihrem 127878
wiegen 127872
liger 127834
hon@@ 127832
Süß@@ 127803
Überprüfung 127803
orien 127785
ukrainische 127781
Lauter@@ 127779
organis@@ 127774
gebrau@@ 127771
100.000 127766
Becken@@ 127765
170 127730
Budget 127729
Weit@@ 127718
SpVgg 127714
sicherten 127713
under@@ 127712
Karl@@ 127703
gekostet 127701
Insassen 127700
begehr@@ 127680
Inflation 127678
Netanjahu 127677
Denken 127674
wies@@ 127673
v.@@ 127660
erfol@@ 127659
garan@@ 127650
kommissar 127628
Historiker 127623
Harmon@@ 127618
saktion 127608
kinder@@ 127589
Europameister 127583
Schulter 127581
J. 127565
Bren@@ 127554
dach 127503
burg@@ 127494
optimi@@ 127493
Cameron 127473
Polit@@ 127466
ganzes 127462
aria 127456
Werken 127433
Disziplin@@ 127431
mili@@ 127404
kalten 127402
übers 127399
foto 127399
Can@@ 127399
verlaufen 127388
einstige 127382
Anne@@ 127368
daten@@ 127361
Skulp@@ 127355
Christi@@ 127353
thil@@ 127340
Stefanie 127333
ends 127326
ländlichen 127315
trü@@ 127297
Clemens 127296
Hanse@@ 127293
Schiffe 127291
ingu@@ 127281
zettel 127274
1980 127270
Schätz@@ 127253
Stift@@ 127221
bunt 127219
interessante 127192
Angestellten 127158
Insel@@ 127147
Schönheit 127143
Schokol@@ 127127
Ac@@ 127099
kassiert 127093
dankt 127086
Stru@@ 127073
Räu@@ 127058
musikalisch 127050
Interessierte 127032
erne 127006
Mitarbeiterin 126998
Lärm 126989
ford 126984
günstiger 126963
Besten 126962
behandeln 126951
schreiber 126950
börse 126887
Anteile 126872
SS@@ 126871
datum 126864
Ursprünglich 126861
maßnahme 126855
bewohner 126850
BGH 126840
Zuschau@@ 126834
äne 126817
Tradition@@ 126816
Boy@@ 126806
Vertei@@ 126783
70. 126777
illegal 126771
mund 126771
humanit@@ 126754
Osnabrück 126746
Zimmern 126709
lud 126707
dank@@ 126690
Parlaments 126672
nör@@ 126641
Sz@@ 126640
beit 126623
traum@@ 126620
Nikolaus 126610
Glad@@ 126610
stehung 126588
gels 126580
Folge@@ 126564
eland 126549
Schuh@@ 126549
ministers 126534
Gehalt 126509
Augsburger 126508
Är@@ 126505
1200 126487
Mitstrei@@ 126474
Vul@@ 126473
franken 126470
Vel@@ 126465
arz@@ 126460
temper@@ 126420
ardo 126391
Unterkunft 126381
stoffen 126380
Kate 126346
ads 126341
Rechen@@ 126315
siedlung 126310
buchen 126301
Bruch 126290
Party@@ 126287
experte 126285
getrieben 126279
DI@@ 126270
werkstatt 126268
Quadratmetern 126263
immer@@ 126256
proje@@ 126247
Noten@@ 126244
arin 126243
Flugzeuge 126243
Kaiser@@ 126242
gestellten 126232
iten 126227
1899 126227
andau@@ 126225
Link 126213
Hochwasser@@ 126198
1,8 126167
ju 126139
Lernen 126127
lektu@@ 126114
Bran@@ 126109
id@@ 126102
migen 126101
dachten 126098
verteidiger 126084
PD 126083
Camp@@ 126080
omi@@ 126069
yn 126063
gravier@@ 126062
schildert 126057
ktivität 126034
beantwortet 126030
Dritten 126029
Vermögens@@ 126015
Füße 126009
Szen@@ 126008
Beson@@ 125995
aufgegeben 125988
verti@@ 125970
stap@@ 125965
deutlicher 125958
radikalen 125950
stimmungs@@ 125949
wechslung 125947
aufgefallen 125936
Maxim@@ 125931
Nobel@@ 125925
besei@@ 125918
operi@@ 125912
Norwe@@ 125905
schlus@@ 125897
diesel@@ 125894
erneuert 125889
Ankla@@ 125887
schnitten 125878
ampag@@ 125874
bekämpfen 125819
differ@@ 125781
zuver@@ 125778
geschoben 125767
Dö@@ 125748
genehmigt 125745
sympath@@ 125725
gelei@@ 125716
geschm@@ 125706
begeistern 125706
arbeite 125705
Johanna 125676
sum 125672
gerten 125633
zugänglich 125628
Programme 125625
Unfallstelle 125612
wissenschaftliche 125611
Separatisten 125603
männer 125596
Geht 125586
Formu@@ 125582
Alonso 125561
breitung 125553
Anfragen 125545
Entlastung 125531
Profess@@ 125507
das@@ 125506
abwechslungs@@ 125482
Slam 125481
anfang 125467
Simone 125446
realistisch 125444
steuert 125443
Ani@@ 125425
line.de 125420
spen@@ 125418
Gusta@@ 125415
ammern 125408
knall@@ 125397
Rechts 125391
Schlusslicht 125373
Programm@@ 125366
angetreten 125343
Acker@@ 125333
lernte 125327
tierung 125325
reichten 125317
ältesten 125309
̈ 125303
Jugendarbeit 125279
Auszubil@@ 125264
Städte@@ 125231
Tabellenplatz 125226
Kloster 125218
genauen 125208
kW 125198
entde@@ 125189
möglicher 125187
klo@@ 125170
investi@@ 125162
Jena 125142
Kund@@ 125131
pump@@ 125130
SSV 125118
Lärm@@ 125103
Schadener@@ 125098
ziehungs@@ 125092
ordnen 125077
Chemnitz 125074
Blitz@@ 125070
gnis@@ 125063
hinein@@ 125055
begegnen 125033
Italiens 125019
ada 125017
Investitions@@ 125016
Group 125015
fraglich 125013
ume 125004
brem@@ 124975
beruflichen 124972
agieren 124944
ässe 124940
mahnt 124940
Frühstück 124933
Niklas 124928
ängt 124901
einzig 124895
verkaufte 124854
Polizeiangaben 124829
125 124813
Berichterstattung 124807
Champion 124770
gestärkt 124764
akzeptiert 124762
Besitz@@ 124760
tro 124749
Bundesland 124741
Alarm 124712
unbekannten 124696
bedroh@@ 124668
Ment@@ 124663
anzen 124663
gebenen 124657
krebs 124644
gedul@@ 124634
Erzieher@@ 124631
Schieß@@ 124625
wein@@ 124618
dsch@@ 124605
Christina 124584
Ig@@ 124576
vorliegen 124568
sportler 124550
missionen 124546
EU@@ 124544
è@@ 124534
Kulisse 124526
Cha@@ 124513
verank@@ 124493
Basel 124487
pläne 124478
Süddeutsche.de 124477
Beute 124472
stehend 124457
themen 124447
Strafen 124445
niedrig@@ 124431
Haftbefehl 124427
Redu@@ 124403
projekte 124402
diversen 124398
Wahler@@ 124397
AC@@ 124383
Gottes 124380
gewerkschaft 124374
ep 124349
Lady 124335
Gutes 124318
abgestimmt 124314
van@@ 124293
komi@@ 124288
fu 124282
Integrations@@ 124278
Nürnberger 124263
zurückhal@@ 124242
pei@@ 124220
kalk@@ 124219
genie@@ 124197
klau@@ 124191
Allen 124183
Burger 124179
Cap@@ 124161
umgerechnet 124151
Klagen 124150
windet 124141
demonstrieren 124139
thu@@ 124136
Möglicherweise 124126
Pech 124125
Schalker 124123
uen 124122
Innov@@ 124104
mehrerer 124103
bl 124077
Kell@@ 124076
abgeordneten 124071
verurteilte 124064
Hinblick 124055
training 124031
Miteinander 124026
ermordet 124010
versorgen 124009
gast@@ 124004
Stadthalle 123974
auftritt 123971
Wenig 123969
anwaltschaft 123965
steck@@ 123960
längeren 123959
er- 123957
illen 123957
Bub@@ 123938
Immun@@ 123936
gemeinsames 123927
Nikol@@ 123908
Marken 123861
Teufel 123853
sem@@ 123845
Chemie@@ 123826
scheidet 123795
Reinhold 123779
Stück@@ 123773
altes 123764
genau@@ 123753
langs@@ 123753
gieren 123747
Angeboten 123736
Hai@@ 123734
ierende 123725
Krebs@@ 123716
Innenverteidiger 123704
stermin 123700
wohin 123683
autor@@ 123678
geregelt 123677
Ostern 123666
ragen 123662
gewalt@@ 123644
europäischer 123615
Stärkung 123614
Bürgermeister@@ 123611
Nowitzki 123605
Ö 123603
Genf 123593
individuelle 123568
ago@@ 123567
Thr@@ 123563
228 123560
tum@@ 123539
Antonio 123527
trolle 123520
Kopfball 123514
zi 123506
angenehm 123484
einbringen 123461
verschw@@ 123455
ami 123452
Alpen 123445
Satz@@ 123444
Belei@@ 123437
weilig 123430
Aufstellung 123425
anders@@ 123415
Wachstums@@ 123414
entur 123372
Baumann 123348
Architekten 123327
Dü@@ 123311
schade 123281
Dschi@@ 123277
Grupp@@ 123275
bank@@ 123272
Fisch 123251
Rosa 123241
Geräten 123229
Architekt 123224
Hamm 123213
Gerichtshof 123213
Mieter@@ 123195
Manu@@ 123183
wunden 123174
bestreitet 123169
Schömberg 123157
ppel 123148
üssel 123145
Rach@@ 123123
gottes@@ 123120
Einzel 123101
Schlussphase 123090
jemals 123071
niedriger 123050
GM 123045
wundern 123037
eigentlichen 123025
Solidar@@ 123018
sturz 123002
Verwal@@ 122993
Ritter 122992
Fis@@ 122988
Echo 122974
kassi@@ 122961
zä@@ 122941
Zuschuss 122929
debatte 122929
zim@@ 122920
Individu@@ 122914
Währ@@ 122914
tanz@@ 122908
geschei@@ 122883
gestimmt 122882
Fusion 122856
gerlich 122846
spolitiker 122816
unüber@@ 122798
Reak@@ 122793
Personen@@ 122786
Marine 122776
Damaskus 122776
einkommen 122776
hochwer@@ 122765
Ware 122730
sexuelle 122717
erkämp@@ 122706
Trainingslager 122699
englische 122692
Künst@@ 122689
barungen 122687
Krimi 122682
verkauf@@ 122678
Schulze 122678
Steigerung 122664
klarer 122636
Weh@@ 122634
Fahrzeu@@ 122632
Brust@@ 122627
Bezir@@ 122625
entstand@@ 122608
wände 122602
Pferde 122601
tour 122589
digkeit 122588
öhe 122564
hinaus@@ 122554
Leder@@ 122549
Abu 122543
Wäh@@ 122535
achtung 122519
büch@@ 122496
arier 122496
Ortsteil 122486
Plastik@@ 122459
Kommuni@@ 122459
runden@@ 122456
Aufsehen 122452
Dschungel@@ 122450
Resonanz 122438
unwahrscheinlich 122430
gewandt 122430
Geschäft@@ 122428
sli@@ 122427
stellerin 122424
sth@@ 122423
geschaut 122406
Old@@ 122388
potenzi@@ 122380
Pflanzen@@ 122375
40. 122372
Bands 122371
KV 122314
1,1 122306
spra@@ 122303
verteilung 122294
friedlich 122292
Maz@@ 122264
Wilhelm@@ 122263
Meldungen 122261
Läufer 122248
Praktik@@ 122246
Vorrunde 122234
präsent 122233
Extremisten 122231
Oli@@ 122222
frühzeitig 122219
olle@@ 122214
teilgenommen 122209
Wachstum@@ 122208
hingewiesen 122201
isation 122200
proz@@ 122184
Ebola 122177
Vögel 122176
dia 122167
sozialer 122161
detailli@@ 122156
anzut@@ 122092
Nap@@ 122062
armen 122050
ancen 122049
europa@@ 122031
entrums 122029
chts@@ 122028
slo@@ 122025
zeitraum 122019
auflage 122016
rom 122014
würdige 122009
Micha@@ 122008
Manipu@@ 121998
raut 121984
tels 121973
Format 121944
Mama 121943
Karten@@ 121940
ira@@ 121936
schlepp@@ 121919
Boh@@ 121915
blau 121898
reiber 121894
Florida 121879
allgemein 121871
zuge@@ 121867
festival 121837
Hag@@ 121831
Gesprä@@ 121828
Söder 121801
Märchen 121791
gewählte 121773
Hannes 121744
önt 121741
ernte 121713
Rückrunde 121691
Erwer@@ 121665
Umso 121650
angezeigt 121644
ckerei 121637
ush@@ 121636
Repräsent@@ 121614
angrenz@@ 121582
müde 121560
SZ 121549
getestet 121545
Winfried 121543
Netzwerken 121542
Breiten@@ 121520
schuhe 121509
vorlegen 121507
erigen 121467
Ky@@ 121459
brücken 121457
Konflikt@@ 121447
digkeits@@ 121443
tat@@ 121398
dachts 121385
brunn 121379
spürbar 121377
Cel@@ 121374
fertig@@ 121370
ele@@ 121349
Amat@@ 121346
Befürwor@@ 121326
Ech@@ 121317
vernetz@@ 121317
Maas 121292
ares 121285
Daneben 121277
einrichtung 121269
Schin@@ 121255
Isla@@ 121237
Gasthaus 121236
Sitze 121227
beachten 121213
tiefen 121210
zulässig 121204
Sinn@@ 121180
niemanden 121146
Planeten 121141
Befragung 121132
kommunik@@ 121132
Kitz@@ 121121
tus 121111
lachen 121107
gnisse 121100
ahme 121089
nachrichten@@ 121088
ht@@ 121084
wendungen 121079
alls 121076
fft 121052
Traditions@@ 121035
vergröß@@ 121035
derStandard.at 121029
festgehalten 121010
nachvollzieh@@ 121004
Selbstvertrauen 120994
jenem 120991
geschah 120969
Bayreuth 120959
Claus 120952
Nachbarschaft 120932
Vorwürfen 120930
Darum 120922
befra@@ 120908
Zuerst 120899
Nab@@ 120898
Systems 120871
Verlierer 120859
shand@@ 120858
mobil 120854
erhand 120847
blau@@ 120842
Flensburg 120840
anstren@@ 120838
pflanzen 120831
Brä@@ 120828
fig 120816
Jahresbeginn 120814
owski 120790
wissenschaften 120789
ader 120743
Südameri@@ 120721
entdeckte 120712
dramatisch 120711
Kinos 120700
überwäl@@ 120695
schirm 120676
Erleich@@ 120654
Halbinsel 120645
beauftragt 120644
elung 120640
AU@@ 120638
fließt 120634
ös@@ 120622
Abzug 120620
Gewerkschafts@@ 120610
Match@@ 120603
morali@@ 120588
Advents@@ 120580
onieren 120529
normalerweise 120519
Gebiete 120518
Morgenpost 120510
Wis@@ 120509
Voraus@@ 120503
Disziplin 120501
Grab@@ 120495
Kabin@@ 120493
warfen 120487
radi@@ 120481
agers 120481
D. 120480
hauser 120470
sphase 120465
Beein@@ 120458
esen@@ 120429
Partnern 120426
Rhythmus 120425
gewis@@ 120422
Innsbruck 120411
Energi@@ 120403
feuer 120401
ungsprozess 120387
Weltre@@ 120379
Juni@@ 120377
strukturi@@ 120376
Zugriff 120367
Springer 120356
kennt@@ 120345
Saisonende 120345
republik 120332
Anhängern 120328
[...]
